<unk> 999 #fairseq:overwrite
<s> 999 #fairseq:overwrite
</s> 999 #fairseq:overwrite
▁p 999
▁s 999
je 999
na 999
ni 999
ra 999
▁v 999
re 999
▁d 999
st 999
▁i 999
ne 999
▁z 999
ko 999
no 999
▁po 999
▁o 999
▁t 999
li 999
ja 999
ri 999
▁na 999
la 999
▁k 999
lo 999
me 999
▁in 999
le 999
ro 999
va 999
▁za 999
▁je 999
ve 999
te 999
▁b 999
ti 999
mo 999
ga 999
vi 999
di 999
ka 999
ma 999
▁se 999
jo 999
ji 999
vo 999
nje 999
ci 999
da 999
to 999
go 999
▁pre 999
po 999
ta 999
mi 999
▁pri 999
se 999
▁u 999
ke 999
ki 999
▁da 999
▁ko 999
de 999
▁do 999
▁te 999
▁so 999
če 999
▁ne 999
ce 999
▁iz 999
či 999
ju 999
sti 999
▁bi 999
▁a 999
▁pa 999
▁ra 999
▁P 999
▁ki 999
▁ka 999
▁od 999
▁ob 999
nih 999
▁de 999
▁S 999
ča 999
ru 999
▁ve 999
▁bo 999
do 999
sta 999
▁š 999
nja 999
▁( 999
▁me 999
▁1 999
že 999
▁mo 999
▁raz 999
ku 999
▁tu 999
bi 999
lja 999
▁e 999
▁V 999
▁2 999
▁pro 999
▁le 999
lje 999
ns 999
be 999
sa 999
sto 999
zi 999
za 999
▁N 999
▁T 999
▁ni 999
pa 999
bo 999
▁ta 999
pi 999
▁K 999
▁tudi 999
▁re 999
▁g 999
▁M 999
▁to 999
pe 999
▁pred 999
nega 999
rav 999
pre 999
gi 999
so 999
jih 999
si 999
lj 999
ži 999
▁la 999
▁st 999
tu 999
▁Z 999
nosti 999
▁dru 999
▁pod 999
nost 999
ža 999
▁D 999
še 999
▁si 999
▁kot 999
ša 999
ca 999
▁sa 999
kov 999
▁ma 999
mu 999
ši 999
ba 999
▁f 999
00 999
lu 999
▁naj 999
lju 999
▁sta 999
ste 999
ski 999
▁še 999
▁h 999
▁no 999
ske 999
▁že 999
▁A 999
▁Po 999
▁B 999
▁O 999
nj 999
▁vo 999
▁mi 999
▁I 999
red 999
lni 999
hko 999
▁R 999
rja 999
ge 999
love 999
nju 999
▁lahko 999
▁vse 999
gra 999
nu 999
ravi 999
▁L 999
▁ali 999
or 999
▁pos 999
vanje 999
ču 999
▁vi 999
ze 999
lji 999
▁med 999
▁ce 999
▁Na 999
tro 999
nem 999
▁tako 999
rje 999
vni 999
tev 999
ter 999
▁G 999
▁go 999
ho 999
▁svo 999
▁če 999
). 999
▁3 999
er 999
ar 999
čno 999
▁kon 999
▁tem 999
liko 999
▁- 999
▁Za 999
▁več 999
▁E 999
nji 999
ska 999
▁spo 999
▁kate 999
kra 999
▁J 999
▁upo 999
čni 999
cije 999
tni 999
val 999
▁spre 999
▁dr 999
▁ti 999
men 999
sko 999
prav 999
dar 999
kih 999
▁C 999
du 999
zo 999
▁m 999
▁č 999
▁kar 999
vlja 999
dni 999
▁ga 999
▁ter 999
▁sku 999
▁jih 999
▁ima 999
nske 999
vanja 999
vno 999
zna 999
čne 999
▁ča 999
▁zna 999
▁pot 999
▁Ko 999
ran 999
▁nje 999
▁drža 999
▁200 999
▁ja 999
cij 999
▁pove 999
pra 999
▁4 999
▁delo 999
.. 999
ha 999
▁smo 999
tno 999
co 999
▁pr 999
lno 999
njih 999
▁H 999
▁di 999
▁mora 999
▁upora 999
mem 999
dno 999
▁tre 999
▁prime 999
radi 999
an 999
▁nas 999
▁sk 999
cija 999
bra 999
▁neka 999
▁» 999
▁sto 999
▁sem 999
vlje 999
▁5 999
▁va 999
▁tr 999
▁Slove 999
sno 999
▁19 999
fi 999
▁U 999
cev 999
tve 999
govo 999
), 999
jem 999
▁sve 999
▁podje 999
rni 999
stva 999
▁us 999
bu 999
zni 999
▁ze 999
▁20 999
▁pravi 999
▁F 999
gle 999
gu 999
▁fi 999
▁ime 999
su 999
▁dela 999
▁ži 999
ške 999
▁Č 999
bno 999
▁sp 999
zu 999
▁vsa 999
rani 999
▁pe 999
tra 999
rga 999
▁To 999
▁potre 999
▁drugi 999
▁saj 999
sem 999
skih 999
blja 999
daj 999
tov 999
kti 999
▁bodo 999
al 999
▁bilo 999
▁Ta 999
rt 999
▁samo 999
čnih 999
▁Pri 999
stavi 999
vali 999
▁vz 999
krat 999
▁bil 999
pu 999
nski 999
vro 999
den 999
▁pov 999
▁Š 999
jejo 999
term 999
stvo 999
▁deja 999
šče 999
▁leta 999
sni 999
meni 999
lika 999
▁bila 999
▁Ma 999
čin 999
▁zd 999
redi 999
▁lju 999
dat 999
▁bolj 999
▁6 999
▁orga 999
cijo 999
▁gla 999
▁Sloveni 999
▁" 999
▁dolo 999
0, 999
en 999
▁hi 999
rez 999
▁ro 999
pos 999
▁pla 999
▁podjet 999
▁< 999
tem 999
▁razli 999
▁– 999
▁ku 999
šča 999
vne 999
▁kako 999
▁prav 999
tek 999
▁pogo 999
▁Ne 999
▁vr 999
ški 999
▁poli 999
▁jo 999
nci 999
njem 999
vaja 999
bolj 999
del 999
pravi 999
▁zaradi 999
spo 999
vih 999
▁tega 999
rih 999
▁stro 999
tevi 999
▁zgo 999
▁odlo 999
▁be 999
vanju 999
▁njih 999
▁gle 999
▁lo 999
bni 999
... 999
▁pra 999
▁teh 999
▁li 999
nov 999
▁otro 999
tor 999
▁zako 999
več 999
▁organi 999
▁zelo 999
tih 999
▁av 999
klju 999
▁kje 999
hi 999
lne 999
kom 999
▁Ka 999
▁oko 999
▁pi 999
▁Če 999
ona 999
nsko 999
▁201 999
▁nad 999
ndar 999
for 999
nes 999
▁siste 999
lek 999
ško 999
skega 999
▁dob 999
veda 999
▁Me 999
▁nam 999
▁nekaj 999
vega 999
▁zače 999
cer 999
▁celo 999
▁7 999
hod 999
▁pose 999
▁ose 999
roči 999
kš 999
let 999
šči 999
▁In 999
▁števi 999
gla 999
rej 999
iz 999
goto 999
vnih 999
▁zato 999
▁kri 999
pli 999
▁veliko 999
stop 999
▁ker 999
čna 999
pro 999
teri 999
▁slove 999
▁predsta 999
▁kjer 999
stni 999
▁posa 999
▁kaj 999
roma 999
▁svoje 999
vati 999
raj 999
moč 999
ven 999
pri 999
žbe 999
▁eno 999
▁mu 999
▁Ra 999
▁Mi 999
dob 999
praša 999
▁leto 999
laga 999
▁podro 999
▁Do 999
▁njiho 999
▁manj 999
njo 999
▁mož 999
▁vred 999
▁ci 999
▁Ve 999
▁8 999
▁katere 999
▁skupi 999
▁uspe 999
vna 999
mer 999
▁posame 999
ren 999
▁posta 999
▁ok 999
sli 999
▁dobi 999
cu 999
▁Re 999
vr 999
▁ozi 999
▁brez 999
dela 999
he 999
▁pomem 999
nom 999
vala 999
▁podat 999
pravlja 999
▁gospo 999
▁zapos 999
▁oziroma 999
manj 999
▁ji 999
jek 999
▁poslo 999
pr 999
▁dol 999
▁% 999
▁vpraša 999
ledi 999
pisa 999
▁ena 999
▁šo 999
tvi 999
▁njego 999
nimi 999
vu 999
forma 999
vnosti 999
stve 999
▁sicer 999
▁zad 999
čen 999
▁razvo 999
.1 999
mpa 999
▁prosto 999
▁progra 999
nd 999
meri 999
▁osta 999
ner 999
▁najbolj 999
vsem 999
fe 999
▁9 999
▁organiza 999
ranje 999
▁politi 999
tri 999
▁name 999
▁sla 999
▁dose 999
▁zah 999
▁področ 999
▁vedno 999
št 999
delo 999
▁evro 999
▁kra 999
▁gre 999
ved 999
ot 999
▁sred 999
▁glede 999
▁tek 999
▁življe 999
▁strani 999
▁druge 999
▁Se 999
▁Ja 999
nim 999
nskih 999
.2 999
gotovi 999
▁dve 999
▁zdrav 999
▁niso 999
▁De 999
lnih 999
▁sko 999
on 999
nej 999
vnega 999
per 999
▁fina 999
kaj 999
qu 999
▁var 999
stri 999
rjev 999
ciji 999
▁199 999
▁čla 999
▁izo 999
led 999
▁vpli 999
▁os 999
▁odgovo 999
ladi 999
rno 999
▁[ 999
▁Iz 999
daja 999
nali 999
▁Da 999
kre 999
▁avto 999
logi 999
ljivo 999
▁Bo 999
žni 999
▁0, 999
▁let 999
▁vendar 999
reč 999
▁igra 999
▁predvsem 999
bli 999
▁Te 999
▁Mo 999
▁Tu 999
deli 999
kaza 999
▁del 999
▁skup 999
un 999
kri 999
in 999
nska 999
dje 999
▁10 999
▁Ž 999
rov 999
▁bili 999
▁stori 999
prej 999
▁Pre 999
jno 999
▁Le 999
▁odloči 999
mogo 999
ble 999
▁tele 999
▁ju 999
▁či 999
▁Lju 999
▁kateri 999
šte 999
▁delu 999
▁ho 999
vem 999
▁veli 999
rne 999
zira 999
▁poveza 999
▁vseh 999
▁bese 999
▁zve 999
▁stran 999
met 999
volj 999
▁poja 999
ciona 999
▁vla 999
dne 999
kr 999
mpak 999
▁tri 999
lijo 999
čnega 999
▁mini 999
▁str 999
spe 999
▁razi 999
skem 999
kovi 999
▁Go 999
▁pote 999
▁Ob 999
▁Pa 999
▁proce 999
▁dobro 999
▁informa 999
quot 999
šo 999
▁oce 999
▁opre 999
ten 999
▁odsto 999
▁izra 999
▁pomeni 999
lna 999
cem 999
gre 999
▁podjetja 999
▁ome 999
▁bomo 999
log 999
▁ponu 999
▁proti 999
vori 999
nskega 999
▁su 999
zor 999
rek 999
▁določe 999
▁Sa 999
▁an 999
dal 999
▁imajo 999
▁osno 999
▁izvaja 999
nova 999
▁more 999
▁No 999
dbe 999
ali 999
len 999
lec 999
▁prvi 999
lta 999
nika 999
novi 999
haja 999
plo 999
vnost 999
▁ste 999
▁raču 999
▁obra 999
ravna 999
▁Vi 999
sov 999
▁tra 999
▁nada 999
sne 999
vod 999
tne 999
ših 999
▁obi 999
▁spreje 999
▁splo 999
▁stra 999
▁W 999
▁Od 999
▁doma 999
▁15 999
ških 999
▁0 999
▁vodi 999
blje 999
ltu 999
▁12 999
mov 999
▁člove 999
▁dne 999
ng 999
jni 999
ranja 999
▁zaposle 999
▁omogo 999
stra 999
lov 999
maga 999
sedni 999
▁gra 999
▁proiz 999
▁zahte 999
▁Evro 999
jemo 999
ktu 999
▁• 999
dobi 999
▁Ljublja 999
▁predstavlja 999
nec 999
▁gospodar 999
▁potem 999
▁največ 999
▁napa 999
zulta 999
▁spremem 999
lih 999
▁fa 999
stu 999
▁družbe 999
menta 999
▁biti 999
dov 999
▁ampak 999
▁par 999
▁usta 999
nar 999
▁način 999
ška 999
▁projek 999
▁ure 999
▁slu 999
▁toč 999
▁Pred 999
▁uporablja 999
▁(1 999
▁proble 999
tr 999
▁(2 999
čina 999
▁ž 999
od 999
tere 999
vah 999
▁zado 999
▁Naj 999
000 999
▁jim 999
▁spe 999
▁učin 999
▁druga 999
▁kom 999
▁Tako 999
▁obve 999
.3 999
▁ši 999
▁vlo 999
kli 999
pla 999
rši 999
▁akti 999
▁dva 999
leg 999
▁Ni 999
▁polo 999
gota 999
▁primeru 999
▁Ro 999
▁izobra 999
▁namreč 999
▁vklju 999
▁razvi 999
▁izpo 999
▁nalo 999
gotavlja 999
▁La 999
▁prej 999
▁prihod 999
vajo 999
▁ust 999
▁ge 999
▁11 999
▁sodelo 999
▁primer 999
čr 999
var 999
▁skla 999
▁Pro 999
▁... 999
▁danes 999
stvu 999
▁sre 999
zen 999
▁teža 999
▁treba 999
▁en 999
▁klju 999
▁novi 999
▁soci 999
▁pou 999
tan 999
mati 999
paj 999
▁prija 999
tje 999
▁finan 999
▁tisti 999
▁torej 999
žno 999
▁priča 999
bne 999
▁Sloveniji 999
▁</ 999
▁kultu 999
▁ustva 999
▁ban 999
kla 999
lija 999
lago 999
ch 999
koli 999
▁vidi 999
▁Pe 999
ben 999
varja 999
▁ba 999
▁mogo 999
▁medi 999
▁1. 999
▁druži 999
▁dvo 999
▁posamezni 999
▁komu 999
▁obli 999
▁odstot 999
una 999
▁ljudi 999
čil 999
tij 999
▁So 999
▁pomoč 999
▁sodi 999
▁posla 999
str 999
▁18 999
▁Je 999
jev 999
zem 999
ver 999
šni 999
▁mese 999
▁potrebno 999
▁inter 999
bor 999
▁oz 999
▁cen 999
▁drugih 999
staja 999
▁čas 999
▁Slovenije 999
stru 999
▁viso 999
▁knji 999
▁predsedni 999
rati 999
bil 999
▁Med 999
▁anali 999
▁dan 999
naša 999
▁okoli 999
▁zdaj 999
por 999
▁strokov 999
▁času 999
ST 999
▁Si 999
čine 999
▁odno 999
rva 999
▁teme 999
▁pripo 999
▁podatkov 999
▁nji 999
tom 999
▁elek 999
▁rezulta 999
▁pridobi 999
▁velja 999
▁& 999
▁seveda 999
risti 999
▁razu 999
▁skle 999
ob 999
▁last 999
dr 999
▁opo 999
▁svoji 999
▁ugotovi 999
▁al 999
▁kro 999
▁govori 999
škega 999
▁postop 999
▁štu 999
▁pora 999
▁nasled 999
▁nek 999
žje 999
▁stop 999
▁šti 999
▁razvoj 999
tna 999
varo 999
▁neko 999
▁reši 999
▁2. 999
▁zade 999
▁obdob 999
▁naše 999
▁bom 999
▁zmanj 999
ndi 999
bna 999
▁kole 999
▁14 999
▁Be 999
lci 999
▁kakš 999
sla 999
▁države 999
▁nima 999
▁EU 999
1, 999
▁dele 999
roča 999
▁fo 999
▁ču 999
▁mne 999
▁13 999
▁res 999
▁meri 999
gov 999
▁mogoče 999
hu 999
AN 999
▁načr 999
gen 999
▁svojo 999
ber 999
▁novo 999
▁letu 999
▁uspeš 999
▁obe 999
tre 999
upa 999
▁časa 999
lom 999
telji 999
▁sli 999
gled 999
▁doda 999
2, 999
▁glas 999
▁druž 999
▁posamez 999
▁obliko 999
0. 999
▁popo 999
▁hitro 999
▁lastni 999
▁različnih 999
▁zase 999
unk 999
dovi 999
▁predstavi 999
▁loka 999
gaja 999
▁takš 999
▁katerih 999
▁poveča 999
vze 999
▁oseb 999
▁16 999
rod 999
▁sistem 999
▁fil 999
▁sme 999
dajo 999
šen 999
njega 999
▁Tudi 999
▁letih 999
lagi 999
vede 999
god 999
▁skupaj 999
▁Kot 999
▁vsi 999
▁mar 999
▁posledi 999
▁Ce 999
▁ener 999
▁milijo 999
▁1, 999
▁obravna 999
01 999
▁pol 999
▁izdel 999
▁omogoča 999
▁Ti 999
▁' 999
pravlje 999
▁stre 999
▁mno 999
▁uporabni 999
▁vode 999
ple 999
▁območ 999
▁malo 999
▁vsak 999
▁trenu 999
▁naredi 999
▁uni 999
▁evrop 999
lnega 999
▁Slika 999
dele 999
▁misli 999
▁gi 999
▁področju 999
tira 999
▁izobraže 999
krati 999
van 999
lasti 999
▁napo 999
rom 999
stev 999
▁želi 999
▁sesta 999
▁raziska 999
▁mesto 999
▁nu 999
▁zuna 999
▁žele 999
vnem 999
▁vod 999
▁c 999
redno 999
5, 999
3, 999
pera 999
▁Bi 999
▁spod 999
▁17 999
nskem 999
▁nasta 999
▁zavaro 999
fo 999
▁prese 999
▁izme 999
▁pozna 999
set 999
▁3. 999
vla 999
▁funk 999
valni 999
▁kakovo 999
vanjem 999
jema 999
ur 999
▁meto 999
▁sti 999
▁dolgo 999
▁pozi 999
vesti 999
tera 999
▁učinkovi 999
som 999
▁opa 999
sih 999
▁ri 999
▁odvi 999
▁podlagi 999
▁eko 999
gleda 999
slu 999
▁Ker 999
▁regi 999
kle 999
stopa 999
▁začet 999
kega 999
▁izgu 999
., 999
▁svet 999
▁tež 999
telj 999
4, 999
▁nove 999
nik 999
▁nato 999
sel 999
▁razme 999
ril 999
cej 999
▁prebi 999
▁evrov 999
▁vrednost 999
▁ar 999
letni 999
ment 999
▁primerja 999
telje 999
▁vozi 999
▁podo 999
man 999
▁temu 999
.... 999
▁otrok 999
▁Mari 999
jen 999
▁tam 999
▁priš 999
▁Ju 999
▁oči 999
NI 999
kon 999
▁izku 999
▁= 999
▁pu 999
kor 999
▁nadalje 999
▁materi 999
▁program 999
▁uporabi 999
▁ukre 999
▁obču 999
▁du 999
▁okvi 999
▁Dru 999
▁vsaj 999
▁pomaga 999
▁sam 999
▁vsebi 999
▁uči 999
▁Raz 999
▁dav 999
▁poda 999
▁Sta 999
▁naspro 999
▁informacij 999
▁prepo 999
prave 999
▁, 999
▁skr 999
▁kr 999
▁upošte 999
▁koli 999
ljo 999
▁dejavnosti 999
▁precej 999
▁skoraj 999
▁svetu 999
vet 999
▁jezi 999
misi 999
▁Li 999
JE 999
6, 999
▁tekmo 999
▁mla 999
▁bile 999
ksi 999
pita 999
šč 999
▁poteka 999
kar 999
▁medna 999
nil 999
žen 999
▁minu 999
OV 999
čino 999
▁opravi 999
▁niti 999
1. 999
▁razume 999
tnih 999
jski 999
▁podjetje 999
▁delav 999
priča 999
▁anke 999
▁Vse 999
▁kaže 999
kem 999
▁člani 999
▁verje 999
ster 999
▁kme 999
8, 999
▁število 999
▁preko 999
▁ura 999
▁/ 999
▁odgovor 999
▁Zato 999
pis 999
stoj 999
▁Že 999
▁tehno 999
▁prispe 999
zno 999
▁mor 999
▁bole 999
▁katerem 999
▁povz 999
ks 999
▁uče 999
▁čle 999
pad 999
▁doku 999
raču 999
kro 999
boj 999
▁udele 999
ral 999
nima 999
▁tej 999
ček 999
rjem 999
RA 999
DA 999
▁sposo 999
▁neu 999
▁Di 999
▁tiste 999
▁bar 999
▁voli 999
lož 999
▁og 999
▁sploh 999
▁ža 999
miš 999
▁računa 999
cah 999
slo 999
▁nara 999
▁mladi 999
▁predlaga 999
▁konce 999
▁energi 999
▁25 999
rdi 999
traj 999
RE 999
7, 999
▁vra 999
▁Prav 999
▁ustvarja 999
▁sveto 999
šču 999
▁moti 999
žu 999
▁pisa 999
čila 999
▁nič 999
▁meni 999
▁Mar 999
▁strate 999
▁opravlja 999
vari 999
▁stru 999
▁svoj 999
9, 999
dbo 999
volje 999
der 999
mlja 999
▁pomembno 999
▁pouda 999
▁vrednosti 999
▁Ba 999
▁morajo 999
port 999
▁posku 999
▁Jo 999
▁mestu 999
▁dveh 999
ljiv 999
▁povpre 999
.« 999
▁sledi 999
stno 999
▁naprej 999
▁dovolj 999
▁hu 999
▁sistema 999
▁nav 999
▁skupine 999
▁Lo 999
▁preve 999
nah 999
čnem 999
šu 999
▁Fran 999
čuje 999
▁svojih 999
dom 999
▁naro 999
▁viš 999
sle 999
▁možnosti 999
▁pripravi 999
bej 999
▁zmanjša 999
▁ide 999
▁dni 999
vizi 999
▁vprašanje 999
alno 999
▁Še 999
čih 999
▁imeli 999
▁pride 999
net 999
▁oh 999
▁kdo 999
mr 999
sna 999
bnosti 999
▁pribli 999
▁bli 999
▁izved 999
▁takrat 999
štvo 999
▁štiri 999
▁100 999
pelja 999
▁izbolj 999
▁zagotavlja 999
2. 999
dna 999
pek 999
▁An 999
▁rast 999
stih 999
vami 999
trov 999
štva 999
rajo 999
▁vzpo 999
▁ak 999
pov 999
▁ško 999
▁ru 999
▁4. 999
skoval 999
jske 999
rvi 999
▁direk 999
šnje 999
▁izdela 999
torja 999
▁fe 999
čiti 999
klo 999
▁možnost 999
sar 999
▁ustrez 999
▁vam 999
▁postavi 999
lcev 999
tivno 999
▁Av 999
4. 999
▁n 999
▁ple 999
▁krat 999
▁položa 999
▁Evrop 999
govi 999
▁pono 999
▁plo 999
▁koncu 999
cijski 999
▁Vo 999
▁poti 999
▁obse 999
▁obja 999
▁zdru 999
▁katerega 999
▁resni 999
dba 999
▁konku 999
▁prostor 999
mor 999
minja 999
▁skozi 999
▁2, 999
nija 999
▁tret 999
▁sami 999
▁pač 999
čka 999
▁izbra 999
bora 999
čini 999
▁nes 999
▁boste 999
▁Slovenija 999
delje 999
stveno 999
▁ravno 999
▁razpo 999
▁pogosto 999
stopi 999
▁storitev 999
▁vsako 999
▁Fi 999
▁posebej 999
škem 999
▁vpliva 999
riti 999
▁prebival 999
▁vide 999
▁upravlja 999
▁prepriča 999
pora 999
rka 999
▁pokaza 999
▁obstaja 999
▁pet 999
dru 999
jh 999
mlje 999
el 999
▁zma 999
rija 999
▁spodbu 999
loga 999
RI 999
▁drugo 999
grafi 999
lan 999
bili 999
▁sredstev 999
fa 999
gli 999
▁zaposlenih 999
▁for 999
▁glo 999
▁Pi 999
▁pričako 999
jajo 999
▁ele 999
▁zave 999
▁sredi 999
sen 999
▁nepre 999
▁zgodovi 999
▁imel 999
3. 999
čili 999
▁koliko 999
▁iska 999
▁poleg 999
▁tvega 999
▁premi 999
nera 999
▁odstotkov 999
▁foto 999
mpi 999
▁odpr 999
kel 999
lnik 999
▁dena 999
▁sporoči 999
▁obre 999
bnih 999
▁lu 999
▁zmo 999
čnimi 999
▁staro 999
▁izbi 999
▁ogla 999
vide 999
▁ozna 999
buje 999
▁zaklju 999
mina 999
dila 999
tnega 999
▁ljudje 999
gri 999
bela 999
▁30 999
▁zagotovi 999
▁proizvod 999
▁izmed 999
rše 999
nce 999
▁kup 999
▁zakona 999
▁prvo 999
▁spremeni 999
rna 999
▁pomočjo 999
LI 999
šnji 999
▁nobe 999
▁vas 999
▁jaz 999
▁varnost 999
▁prika 999
▁trans 999
▁novih 999
▁zra 999
dil 999
▁nepos 999
▁proda 999
▁dra 999
jša 999
▁čeprav 999
tvijo 999
▁katero 999
▁PO 999
▁struktu 999
▁social 999
▁živi 999
▁. 999
kšen 999
tori 999
▁eki 999
pti 999
▁elektro 999
▁gleda 999
▁prizna 999
▁pripravlje 999
▁kapita 999
tel 999
▁ravni 999
dnih 999
mre 999
sk 999
▁kli 999
▁Ru 999
▁preno 999
fika 999
▁nagra 999
▁imamo 999
gel 999
▁smi 999
▁odloča 999
jši 999
dnje 999
rane 999
▁standar 999
▁dejavni 999
▁omenje 999
▁tehni 999
▁zašči 999
dem 999
JA 999
▁spozna 999
▁izboljša 999
▁hkrati 999
▁naku 999
▁Ljubljana 999
▁spro 999
▁part 999
žil 999
rali 999
▁čim 999
lede 999
▁splet 999
▁investi 999
nostjo 999
▁“ 999
▁zbi 999
redo 999
▁šol 999
</ 999
vra 999
5. 999
,« 999
vec 999
▁konča 999
▁drugim 999
▁sedaj 999
▁Poleg 999
delu 999
zne 999
▁Va 999
99 999
▁dodat 999
ktor 999
▁bolni 999
▁giba 999
jše 999
rža 999
▁sploš 999
čem 999
stitu 999
stavlje 999
▁zame 999
▁gro 999
▁zapo 999
▁različne 999
▁radi 999
▁konkuren 999
▁ministr 999
tja 999
▁trdi 999
▁Kra 999
stro 999
▁cilje 999
▁življenje 999
mom 999
sku 999
NA 999
mni 999
▁intere 999
▁predstavni 999
▁organizacije 999
▁namenje 999
▁stri 999
▁medtem 999
▁sreča 999
▁glasbe 999
▁3, 999
6. 999
raz 999
pusti 999
dra 999
▁določa 999
▁5. 999
▁stvari 999
gni 999
▁Gre 999
▁sr 999
▁reše 999
lca 999
▁povsem 999
▁špor 999
▁teo 999
jne 999
metni 999
nejše 999
dilo 999
▁dogaja 999
▁uporabo 999
▁sveta 999
▁študi 999
tt 999
▁Hvala 999
▁obla 999
tar 999
stre 999
nami 999
▁nače 999
▁drugega 999
▁komisi 999
▁spremlja 999
vom 999
zuje 999
žive 999
mlji 999
▁moramo 999
cijske 999
▁red 999
▁vredno 999
▁vsem 999
čo 999
▁natan 999
▁naslo 999
▁življenja 999
▁zahteva 999
▁okviru 999
▁država 999
▁morali 999
▁držav 999
alni 999
▁ameri 999
▁tehnologi 999
čnim 999
▁kre 999
▁poroči 999
stne 999
jekti 999
▁sezo 999
dek 999
▁slovenski 999
stov 999
▁Ali 999
▁Zaradi 999
nejši 999
▁nadzor 999
▁toliko 999
▁enako 999
▁viši 999
▁mesta 999
nka 999
▁ravna 999
▁prva 999
nici 999
▁dej 999
▁uredi 999
rano 999
▁leti 999
pravo 999
▁njimi 999
eno 999
▁potrdi 999
▁števil 999
▁kvali 999
denti 999
▁nor 999
▁pravo 999
7. 999
▁nosi 999
jte 999
▁kljub 999
šek 999
▁demo 999
▁majh 999
▁svojega 999
8. 999
ck 999
▁vede 999
▁trgu 999
larjev 999
▁podpo 999
▁pokli 999
▁podjetij 999
NO 999
▁Co 999
▁speci 999
NE 999
▁okolje 999
▁naš 999
feren 999
«, 999
rde 999
▁popolno 999
▁naciona 999
▁dogod 999
lin 999
▁predsednik 999
▁površi 999
▁zakon 999
▁jasno 999
▁poveda 999
publi 999
▁nava 999
▁avtomo 999
▁šele 999
rana 999
▁vzgo 999
velja 999
▁dopo 999
glav 999
▁deset 999
▁učinkovito 999
▁svetov 999
▁edi 999
▁pomo 999
▁čez 999
cih 999
▁klu 999
▁Vsa 999
vljajo 999
▁najpo 999
▁zdravstve 999
nta 999
▁komunika 999
▁cilj 999
meta 999
▁Ri 999
▁služ 999
▁zanimi 999
▁obdobju 999
fini 999
▁delni 999
nemu 999
▁odli 999
▁Lu 999
▁vzor 999
▁pretek 999
▁Al 999
▁začetku 999
▁znam 999
▁morda 999
▁milijonov 999
mišlja 999
sneje 999
▁naza 999
▁težko 999
▁(200 999
▁čaka 999
▁zakono 999
-1 999
▁spremembe 999
▁kla 999
«. 999
▁kandi 999
▁Ci 999
▁narav 999
▁večji 999
RO 999
▁zadovolj 999
▁letos 999
TE 999
cijah 999
rila 999
▁spet 999
▁Ho 999
bnost 999
▁večje 999
▁nisem 999
▁lepo 999
▁zanima 999
▁zadnjih 999
▁premo 999
▁50 999
janje 999
što 999
50 999
▁aktivnosti 999
gati 999
▁objek 999
▁priso 999
▁proraču 999
▁neza 999
kuje 999
▁podpi 999
▁zgolj 999
▁Sku 999
rji 999
▁podjetju 999
▁učen 999
▁treh 999
▁najprej 999
▁diplo 999
dustri 999
▁izvo 999
dmi 999
▁Ki 999
▁čr 999
▁zdravi 999
reje 999
čevanje 999
tisti 999
tega 999
rije 999
čnost 999
▁vlada 999
▁poško 999
rju 999
škov 999
tru 999
▁voja 999
valo 999
žja 999
▁zapisa 999
▁nikoli 999
▁prodaja 999
menje 999
▁usme 999
zacije 999
rili 999
▁posameznih 999
▁četr 999
▁prepre 999
zma 999
▁povedal 999
mena 999
▁imela 999
▁trgovi 999
čeno 999
voji 999
▁obvez 999
▁psi 999
9. 999
dro 999
ljivost 999
LA 999
jsko 999
▁poslu 999
▁uvr 999
▁notra 999
▁produ 999
▁prilož 999
▁deli 999
▁enega 999
▁takoj 999
▁prihaja 999
▁doka 999
▁približno 999
šel 999
▁delež 999
▁enkrat 999
ncev 999
▁tiso 999
niki 999
SK 999
▁plača 999
▁stav 999
▁Ze 999
▁198 999
▁poko 999
izku 999
talija 999
▁storitve 999
▁Ven 999
▁računalni 999
▁njihovo 999
ljivosti 999
▁organizira 999
▁skladu 999
▁sezna 999
tin 999
▁priza 999
il 999
▁temveč 999
▁spa 999
▁nekoliko 999
▁izko 999
▁temelji 999
▁Ha 999
kakor 999
▁časo 999
▁bra 999
▁of 999
▁it 999
▁Nem 999
▁zazna 999
▁inte 999
▁dogovo 999
▁eden 999
▁spreminja 999
▁razvoja 999
nese 999
diti 999
▁strategi 999
terih 999
▁fizi 999
▁Gra 999
▁posto 999
jskih 999
▁NA 999
▁Ga 999
ljub 999
▁blago 999
▁moč 999
▁pravice 999
▁sredstva 999
skim 999
▁verjetno 999
▁zakaj 999
▁omre 999
▁skupnosti 999
▁zo 999
▁znanja 999
dili 999
ščine 999
▁visoko 999
▁IN 999
mbo 999
▁zdi 999
▁vlogo 999
▁državlja 999
▁nepo 999
▁šport 999
▁njegovo 999
▁prepro 999
rak 999
▁preveč 999
kvarja 999
▁stolet 999
▁Ku 999
▁upa 999
▁prikaza 999
▁obliki 999
▁napre 999
▁pojavi 999
▁večino 999
čnosti 999
▁ZDA 999
▁razlo 999
▁načrto 999
▁industri 999
lce 999
cami 999
▁gradi 999
▁prei 999
fici 999
▁pogovo 999
▁predlo 999
cijskih 999
zd 999
▁odkri 999
▁nekaterih 999
▁Kaj 999
tua 999
▁nekateri 999
▁Spo 999
▁ustre 999
▁strinja 999
notraj 999
▁poka 999
časno 999
▁ugotavlja 999
rnih 999
▁sub 999
▁Vendar 999
▁zlo 999
▁izraču 999
smo 999
▁w 999
▁študen 999
▁razmišlja 999
▁kmetij 999
▁zi 999
▁pozor 999
rk 999
▁močno 999
▁Kar 999
čič 999
teljev 999
▁svojem 999
▁poso 999
20 999
▁ukvarja 999
rita 999
▁slabo 999
▁prevze 999
vek 999
prava 999
▁denar 999
__ 999
▁problem 999
▁podob 999
▁oče 999
▁običa 999
▁proces 999
torji 999
▁vodo 999
▁6. 999
▁institu 999
▁dostop 999
▁vese 999
▁katerimi 999
▁podatke 999
▁mednaro 999
▁24 999
▁genera 999
rec 999
▁Glede 999
▁kakor 999
▁področja 999
▁popolnoma 999
▁ustanovi 999
stem 999
▁obsto 999
▁kriti 999
nt 999
▁ur 999
▁naši 999
▁pogodbe 999
▁4, 999
nejo 999
čilo 999
▁defini 999
▁vzdr 999
▁težave 999
govarja 999
▁predvide 999
▁voljo 999
nda 999
▁zaveda 999
ger 999
▁pona 999
▁naloge 999
▁zaposli 999
▁dvi 999
): 999
▁vem 999
▁zbo 999
▁priti 999
bru 999
▁odra 999
▁ekonom 999
▁skri 999
rke 999
časih 999
tvah 999
žo 999
▁21 999
vnim 999
▁življenj 999
▁Ca 999
rijo 999
▁stroškov 999
▁+ 999
▁tukaj 999
th 999
▁stali 999
▁veliki 999
dbi 999
▁film 999
▁zemlji 999
tnik 999
▁uvelja 999
nek 999
▁situa 999
kah 999
▁okro 999
▁prven 999
lnje 999
▁rešitev 999
▁znotraj 999
▁prevo 999
pisu 999
čeraj 999
bri 999
▁delovanje 999
▁nem 999
stna 999
▁beseda 999
▁vprašanja 999
mentov 999
▁novega 999
▁40 999
▁tuji 999
tete 999
▁nogo 999
▁znaša 999
▁njim 999
ul 999
razu 999
▁informacije 999
▁konec 999
TI 999
peratu 999
▁kontro 999
▁odda 999
ljivi 999
▁Ameri 999
▁zvezi 999
mp 999
▁pojasni 999
▁opredeli 999
▁okolja 999
stav 999
▁ama 999
▁oro 999
▁energije 999
▁: 999
▁zahtev 999
▁potrebe 999
stavlja 999
jska 999
▁prvem 999
▁vlade 999
▁Fa 999
▁agen 999
▁predlog 999
▁uspo 999
▁upravi 999
▁posve 999
▁velika 999
▁stranke 999
▁RS 999
▁prema 999
jan 999
▁prilago 999
stvom 999
▁preje 999
ljive 999
▁doba 999
▁slo 999
▁uži 999
LO 999
▁velik 999
▁otroci 999
▁Tre 999
▁dejal 999
▁uspešno 999
▁delovanja 999
▁najmanj 999
▁niz 999
▁ek 999
▁moral 999
▁opera 999
▁Hi 999
tali 999
▁temelj 999
▁potro 999
us 999
▁Ljubljani 999
▁dobre 999
▁prizade 999
▁uri 999
▁co 999
▁poroča 999
▁dovolje 999
tnosti 999
▁skupina 999
▁zaupa 999
vale 999
▁nadzo 999
▁poča 999
▁člen 999
▁promet 999
▁opozo 999
ženja 999
vil 999
▁inf 999
▁državi 999
tnost 999
▁član 999
dol 999
▁tradi 999
ranju 999
▁vrste 999
žili 999
▁njihove 999
zacija 999
▁repre 999
hodni 999
▁prek 999
▁mnenju 999
▁obo 999
▁slovenskih 999
▁novem 999
nca 999
dome 999
▁šola 999
bah 999
LE 999
▁22 999
▁zmago 999
menti 999
▁ZA 999
▁Gla 999
▁nekda 999
▁tretji 999
▁obeh 999
▁drugače 999
▁fotografi 999
▁anketi 999
▁izvr 999
▁sodišče 999
▁enosta 999
tion 999
čitev 999
▁tisoč 999
▁značil 999
žne 999
▁podatki 999
▁parla 999
arja 999
šnja 999
▁svojim 999
ljiva 999
▁št 999
▁polovi 999
setih 999
ženje 999
▁Kako 999
▁poto 999
▁poi 999
▁začne 999
▁povzroči 999
TA 999
▁identi 999
▁stanje 999
stnih 999
jena 999
▁pomanj 999
▁deluje 999
▁vrni 999
dri 999
▁izjem 999
▁Drža 999
ženi 999
▁trenut 999
ndma 999
▁elektri 999
▁zadnji 999
▁indi 999
▁svobo 999
▁ap 999
▁Y 999
▁oku 999
čer 999
▁vključe 999
▁financi 999
▁sama 999
▁seboj 999
ton 999
▁nadaljevanju 999
gih 999
▁ostali 999
▁odločitev 999
▁opti 999
▁Republi 999
▁Kon 999
▁znači 999
gor 999
snih 999
zacijo 999
bila 999
čujejo 999
▁celi 999
plje 999
stvi 999
▁starše 999
▁temperatu 999
▁2008 999
▁dejavnost 999
▁uporabljajo 999
▁ocenje 999
olo 999
▁ovi 999
sil 999
kami 999
▁statisti 999
▁zni 999
▁poskuša 999
▁imenu 999
▁dana 999
▁lani 999
▁Hrva 999
▁dobili 999
▁osebe 999
▁denarja 999
▁Tabela 999
▁slovenske 999
▁tak 999
rbi 999
▁poziti 999
min 999
▁razši 999
misli 999
vljena 999
▁odstotka 999
▁goz 999
malno 999
lega 999
▁območju 999
▁težav 999
telja 999
▁prepozna 999
▁sodelovanje 999
▁kori 999
▁čemer 999
gna 999
nili 999
▁Pod 999
▁kasneje 999
▁drugimi 999
gne 999
pom 999
▁izdelkov 999
▁starej 999
alne 999
▁amandma 999
▁ute 999
zaprav 999
▁ponovno 999
▁sprejema 999
ljuje 999
▁javnih 999
▁sodni 999
▁izda 999
▁same 999
tak 999
▁slika 999
▁preizku 999
▁zgra 999
▁nasi 999
▁dosega 999
▁glaso 999
ševanje 999
osta 999
10 999
▁znan 999
▁revi 999
▁2007 999
čijo 999
▁navede 999
▁javno 999
▁23 999
▁zavo 999
▁otroka 999
ler 999
dih 999
čar 999
▁reprezen 999
mat 999
▁zagoto 999
▁njegove 999
▁itd 999
▁nekatere 999
čnik 999
▁10. 999
▁ver 999
▁obravnava 999
▁Tr 999
▁Uni 999
▁manjši 999
▁projekta 999
▁sva 999
▁dejansko 999
pred 999
▁šole 999
lnim 999
▁najde 999
▁zbra 999
graf 999
lnem 999
bere 999
,& 999
voli 999
▁he 999
naj 999
struktu 999
▁materia 999
bnega 999
▁nih 999
▁programa 999
▁Jaz 999
▁zele 999
▁njegov 999
nema 999
▁X 999
ram 999
▁zaslu 999
▁poro 999
viš 999
▁mre 999
▁Seveda 999
▁nena 999
▁the 999
▁kazni 999
mični 999
▁kdaj 999
redni 999
cijsko 999
▁primerjavi 999
▁7. 999
▁določene 999
▁skupini 999
dijo 999
▁izrazi 999
▁govo 999
čega 999
▁zlasti 999
line 999
▁namen 999
▁strokovnja 999
▁poza 999
▁kakovosti 999
▁izja 999
▁katego 999
▁nadome 999
▁vpliv 999
▁navaja 999
▁Čeprav 999
limpi 999
▁sobo 999
▁njegovi 999
▁člena 999
▁Kljub 999
▁centra 999
▁inš 999
▁doseže 999
mih 999
valci 999
▁prakti 999
▁omeji 999
▁dia 999
▁občine 999
▁bolezni 999
▁prišlo 999
▁uresni 999
▁eni 999
▁tistih 999
žnosti 999
▁2010 999
▁točk 999
▁drugem 999
▁katerim 999
tran 999
ttp 999
▁obstoje 999
um 999
▁ke 999
▁večina 999
▁klasi 999
▁sodelu 999
▁smu 999
▁vre 999
▁neod 999
▁gosti 999
▁raziskave 999
▁oseba 999
// 999
bina 999
ang 999
▁poslovanja 999
▁tisto 999
▁sebi 999
▁mednarod 999
▁nazaj 999
kcije 999
▁lastnosti 999
▁2009 999
▁Vla 999
▁napisa 999
▁pravic 999
▁model 999
krš 999
▁varo 999
memb 999
▁njihovi 999
▁ljube 999
▁postopek 999
▁para 999
▁obveznosti 999
EN 999
▁včeraj 999
kujejo 999
br 999
▁zamenja 999
11 999
▁nadalj 999
▁pregle 999
▁poskr 999
▁politike 999
▁litera 999
▁proizvaja 999
▁Ge 999
▁And 999
▁izhaja 999
▁odzi 999
:// 999
▁občut 999
ll 999
▁kaza 999
žijo 999
▁igri 999
▁razre 999
▁bolje 999
▁preh 999
▁dre 999
CI 999
vanj 999
▁potenci 999
▁skrbi 999
up 999
▁državah 999
▁dro 999
▁prve 999
žna 999
tika 999
▁Vir 999
skimi 999
jeno 999
zarja 999
▁on 999
▁papi 999
▁kilo 999
▁dis 999
▁ženske 999
▁Jan 999
▁turisti 999
▁lepa 999
▁razred 999
▁uporabe 999
oni 999
pote 999
jna 999
▁pogle 999
tim 999
▁priredi 999
glo 999
▁Sve 999
5). 999
▁poglav 999
▁popu 999
▁delovnih 999
▁vrsti 999
▁nepri 999
kim 999
▁dom 999
▁5, 999
6). 999
zija 999
čena 999
ss 999
▁20. 999
valec 999
▁nanaša 999
▁mislim 999
til 999
nomi 999
▁moči 999
▁milija 999
▁proizvo 999
▁njem 999
▁imenova 999
▁pripa 999
▁službe 999
▁usmerje 999
losti 999
▁dobil 999
▁prostora 999
žji 999
▁vrt 999
nice 999
▁začel 999
▁gospod 999
▁umetni 999
▁npr 999
grad 999
nke 999
2). 999
▁konca 999
▁preda 999
▁naroči 999
▁teden 999
vani 999
▁uprav 999
che 999
▁človek 999
nila 999
čev 999
3). 999
▁podobno 999
▁množi 999
tosti 999
▁posebno 999
▁pomembna 999
▁fan 999
zije 999
▁zvez 999
vana 999
▁nov 999
▁velike 999
▁televizi 999
▁cene 999
▁prvič 999
db 999
tnem 999
▁kandida 999
▁mest 999
▁partner 999
vid 999
▁stvar 999
4). 999
▁morebi 999
▁izvede 999
LJ 999
tovo 999
gro 999
▁pomoči 999
lnosti 999
hodu 999
-- 999
novanj 999
▁zapi 999
▁Prvi 999
nije 999
▁im 999
rie 999
▁nastopi 999
▁državni 999
KO 999
▁Ar 999
▁” 999
▁točke 999
▁zaba 999
žila 999
▁Bu 999
▁blo 999
▁kupi 999
▁8. 999
▁igral 999
▁aplika 999
▁podjetni 999
▁osnovi 999
ty 999
▁morala 999
▁začela 999
lik 999
▁ogro 999
▁odpad 999
▁opazi 999
▁začeli 999
▁Neka 999
lina 999
▁obdobje 999
▁) 999
DS 999
▁njej 999
▁umet 999
▁ustrezno 999
/2 999
▁poj 999
▁njegova 999
▁hote 999
lnimi 999
sten 999
▁šest 999
▁primerih 999
▁konkre 999
▁rekel 999
▁področje 999
▁očitno 999
▁univer 999
▁človeko 999
▁kredi 999
▁sporazu 999
▁odpo 999
duje 999
gar 999
▁zvo 999
▁traja 999
malu 999
▁kakovost 999
TO 999
▁60 999
▁ves 999
▁želijo 999
▁nase 999
▁zadeve 999
▁virov 999
▁tolarjev 999
▁Maribor 999
▁pripravlja 999
▁dobri 999
▁2000 999
▁smeri 999
▁statu 999
tal 999
▁bistveno 999
as 999
▁pomemben 999
▁logi 999
▁sede 999
▁2011 999
▁banke 999
▁Kri 999
▁nevar 999
čimo 999
gom 999
▁nismo 999
ptem 999
▁trg 999
ramo 999
▁župa 999
nin 999
▁vrhu 999
▁Jane 999
▁sple 999
▁zadnjem 999
vnik 999
Po 999
▁sose 999
▁bre 999
▁Mu 999
▁dokumenta 999
KA 999
▁kakšen 999
▁stoletja 999
▁pravzaprav 999
lacije 999
98 999
▁Ži 999
▁opisa 999
šuje 999
▁turi 999
▁zas 999
merno 999
▁vzro 999
▁slab 999
▁oblike 999
vili 999
▁okolju 999
VE 999
▁dalj 999
▁sodela 999
cen 999
jeni 999
PO 999
loma 999
▁fran 999
▁odpravi 999
GA 999
▁Mini 999
▁arhi 999
▁profe 999
njuje 999
▁posluša 999
▁uvrsti 999
▁neposredno 999
▁telo 999
40 999
▁šte 999
stega 999
▁včasih 999
▁reži 999
▁vlaga 999
▁varnosti 999
vljen 999
▁zla 999
▁nepremični 999
▁dodatno 999
▁vme 999
▁nape 999
▁skuša 999
▁Toda 999
▁sklepa 999
▁pristoj 999
▁predstavljajo 999
▁družbi 999
tost 999
▁nujno 999
▁pokojni 999
čke 999
tju 999
▁pogaja 999
son 999
kraji 999
▁boga 999
riji 999
čbe 999
▁pomen 999
▁9. 999
▁drug 999
ser 999
▁boljše 999
▁potrebu 999
torjev 999
); 999
▁nivo 999
▁vzdrže 999
▁vzpostavi 999
nati 999
▁razisko 999
rala 999
neh 999
▁imeti 999
▁sposobnosti 999
▁otroke 999
▁Republike 999
smi 999
▁čisto 999
▁trenutno 999
▁predsednika 999
▁Potem 999
▁položaj 999
▁6, 999
▁naslednje 999
▁telefo 999
▁Leta 999
▁moški 999
▁anketiran 999
niti 999
kul 999
nskim 999
▁sestavi 999
▁ca 999
▁izklju 999
▁Pla 999
▁sklo 999
▁kadar 999
▁glavni 999
▁sprememb 999
nove 999
▁plače 999
nage 999
▁razlike 999
▁kraj 999
▁moje 999
har 999
▁ponuja 999
▁tekme 999
▁komunici 999
▁bosta 999
res 999
▁posledica 999
beli 999
▁x 999
valne 999
metrov 999
▁prito 999
vov 999
▁kakšno 999
▁znanje 999
▁tru 999
▁197 999
▁značilnosti 999
▁neo 999
▁Su 999
▁ope 999
▁sek 999
▁koncep 999
▁pravico 999
▁tokrat 999
▁toda 999
▁lažje 999
vju 999
▁javnega 999
▁Več 999
▁učenci 999
-2 999
čan 999
▁prednost 999
▁imam 999
▁* 999
▁bu 999
▁postopku 999
leč 999
▁reci 999
▁blaga 999
▁odnos 999
▁moj 999
zer 999
STA 999
........ 999
▁zme 999
▁njihovih 999
30 999
▁raziskoval 999
▁uved 999
▁povpreč 999
boru 999
▁and 999
▁mene 999
▁Vr 999
▁stroški 999
▁deže 999
▁meha 999
VA 999
fina 999
▁napove 999
▁psiho 999
vidu 999
▁vsebuje 999
▁vso 999
▁septem 999
▁stano 999
▁polici 999
," 999
▁ab 999
cijami 999
lar 999
liti 999
▁piše 999
▁nimajo 999
slej 999
▁pusti 999
▁naslednji 999
▁Evropi 999
▁poču 999
▁grad 999
alnih 999
▁najviš 999
▁kažejo 999
▁per 999
▁največji 999
▁vidika 999
▁He 999
▁nači 999
▁zniža 999
▁opazo 999
▁dopolni 999
▁prak 999
▁negati 999
teta 999
▁http 999
▁Torej 999
mba 999
▁prije 999
▁skladi 999
▁0,0 999
DI 999
▁vir 999
60 999
▁zaposleni 999
▁obči 999
nikov 999
▁vozni 999
▁nova 999
▁družba 999
▁naših 999
▁večjo 999
▁12. 999
▁Tri 999
▁življenju 999
▁seku 999
▁razvija 999
▁Bar 999
▁marsi 999
▁igre 999
▁rde 999
nejših 999
▁referen 999
cijska 999
]. 999
▁vrsto 999
▁uprave 999
ženih 999
▁novinar 999
reti 999
▁javnosti 999
▁oblika 999
ol 999
▁ciljev 999
▁Dra 999
▁rela 999
žena 999
▁tla 999
čeni 999
▁Lahko 999
bele 999
▁projekt 999
▁minister 999
▁najpomemb 999
▁SI 999
▁izobraževanja 999
▁sodelav 999
leti 999
vnimi 999
▁prejš 999
čenje 999
jah 999
▁seda 999
▁vaše 999
▁Sla 999
▁ceno 999
▁27 999
▁interne 999
▁kolikor 999
nica 999
▁mnenje 999
EM 999
▁potrošni 999
▁spremen 999
▁Du 999
▁žive 999
▁razvoju 999
▁Avstri 999
▁kriteri 999
▁vplivajo 999
▁pomena 999
delek 999
▁medici 999
▁reprezentan 999
kler 999
▁trga 999
▁slovenskega 999
▁obraz 999
▁− 999
▁vož 999
jskega 999
▁ohranja 999
▁prodaje 999
▁možno 999
▁tovr 999
▁hla 999
▁neodvi 999
▁spošto 999
bel 999
▁rea 999
▁vze 999
▁bor 999
▁umi 999
čki 999
▁kratko 999
▁opozarja 999
VI 999
▁uspelo 999
▁(199 999
▁stanovanj 999
lnika 999
▁okrog 999
▁geo 999
▁pokri 999
▁delavcev 999
▁zmaga 999
▁Veliko 999
ati 999
▁infra 999
▁rešitve 999
▁izobraz 999
tudi 999
▁poš 999
▁stopnjo 999
▁Nemči 999
▁števila 999
▁javnost 999
▁toplo 999
tnim 999
dnik 999
▁28 999
▁Slovenijo 999
žiti 999
ljivih 999
▁Števi 999
nos 999
▁posameznika 999
▁medse 999
▁Upora 999
▁sodišča 999
žar 999
▁izvajanje 999
doblje 999
▁11. 999
vija 999
▁prednosti 999
▁delovno 999
▁oba 999
ena 999
▁obvla 999
▁meša 999
▁smislu 999
▁minut 999
▁Ber 999
▁Pu 999
VO 999
cijskega 999
▁konstru 999
zov 999
▁znova 999
tenzi 999
dnega 999
▁26 999
▁celoti 999
▁presene 999
valnih 999
zame 999
▁teko 999
▁decem 999
▁nesre 999
rij 999
▁izkuše 999
▁(3 999
▁Zako 999
tka 999
▁sodob 999
▁19. 999
▁milijona 999
▁Sto 999
▁15. 999
▁potrebuje 999
▁živali 999
čevanja 999
▁večkrat 999
ture 999
dina 999
." 999
▁isto 999
▁Največ 999
▁vseeno 999
▁italija 999
▁delodaja 999
nejša 999
▁preverja 999
▁Vsi 999
▁starši 999
am 999
▁srednje 999
▁tvo 999
▁sm 999
goste 999
▁sebe 999
▁stroške 999
▁mlado 999
žnost 999
jših 999
▁prišel 999
vić 999
▁uli 999
▁Podje 999
sablja 999
zijo 999
▁krši 999
▁oskr 999
▁razliko 999
▁oblasti 999
▁l 999
▁stopi 999
▁kajti 999
ww 999
nte 999
▁globa 999
▁predpi 999
▁plani 999
▁obdela 999
▁kore 999
▁občin 999
▁šoli 999
▁Gospo 999
▁uvo 999
▁opreme 999
žene 999
hodi 999
▁stopnje 999
▁poudarja 999
▁določeno 999
▁tekmi 999
▁skupino 999
▁poslovnih 999
▁Danes 999
▁poklic 999
▁besedo 999
▁predme 999
▁vrednote 999
▁poob 999
▁Zdaj 999
12 999
ljublje 999
▁dober 999
www 999
giba 999
čani 999
▁sprejem 999
▁apri 999
šol 999
▁odst 999
rjenje 999
▁posredo 999
▁povzroča 999
▁roko 999
▁dejstvo 999
▁navdu 999
▁poči 999
▁nau 999
bami 999
▁kompo 999
▁nihče 999
▁dopu 999
▁traj 999
▁nastopa 999
▁janu 999
▁izvi 999
RS 999
▁izkušnje 999
ry 999
▁%) 999
▁zdravlje 999
▁osem 999
▁stanja 999
▁dolgoro 999
▁ljud 999
▁direktor 999
▁infrastruktu 999
▁rasti 999
žnih 999
▁Samo 999
življa 999
▁kmalu 999
▁nahaja 999
▁svetlo 999
45 999
▁okto 999
▁pregled 999
▁eks 999
niji 999
▁Gori 999
▁postal 999
▁besede 999
▁son 999
▁1: 999
▁dvema 999
▁gradbe 999
vane 999
▁kad 999
▁njeno 999
▁Nas 999
▁skupin 999
▁Nje 999
▁diplom 999
redoto 999
▁običajno 999
▁priložnost 999
▁brezpo 999
vljeno 999
▁Fo 999
▁podporo 999
▁smr 999
stjo 999
▁prvega 999
▁členu 999
▁staršev 999
lej 999
joči 999
▁35 999
▁vsega 999
▁rezultate 999
▁uskla 999
▁občina 999
▁tro 999
tili 999
▁stopnja 999
▁prvih 999
▁komp 999
nijo 999
▁gori 999
rd 999
▁članov 999
▁procesa 999
ker 999
▁daje 999
▁18. 999
timi 999
▁prosi 999
skov 999
▁mobi 999
▁ohrani 999
▁mnenja 999
▁dneh 999
▁večja 999
▁izraža 999
vamo 999
▁želimo 999
▁spodbuja 999
▁stranka 999
viden 999
▁nalog 999
▁posamezne 999
▁prava 999
▁2006 999
▁izjemno 999
bro 999
▁rezultat 999
cien 999
▁njegovih 999
▁širo 999
▁trgov 999
rnega 999
nk 999
▁zgodilo 999
▁določenih 999
▁Pravi 999
veza 999
▁produk 999
▁Sicer 999
vano 999
▁njo 999
▁rezultatov 999
▁enem 999
▁večinoma 999
lep 999
▁sedem 999
▁pospe 999
▁nedo 999
▁gledali 999
▁delovne 999
▁7, 999
▁Ampak 999
▁naloga 999
uro 999
novod 999
▁ureja 999
▁individu 999
▁Mer 999
rilo 999
▁Evropske 999
▁motiva 999
▁usposablja 999
▁družine 999
▁omeni 999
▁2004 999
▁prinaša 999
teto 999
šnjo 999
▁metodo 999
metri 999
▁menja 999
tah 999
▁sistemu 999
▁ljublja 999
▁partne 999
▁območja 999
pd 999
▁The 999
▁priče 999
▁ostalih 999
▁izobraževanje 999
▁oddel 999
▁preu 999
▁potrebo 999
▁socialno 999
▁izi 999
▁ustavi 999
▁tradiciona 999
▁razdeli 999
▁moremo 999
▁prihodnje 999
▁domači 999
joče 999
gram 999
stan 999
rah 999
▁pobu 999
▁človeka 999
▁analize 999
▁prispev 999
▁skupno 999
žuje 999
▁javne 999
▁prežive 999
▁vrst 999
DE 999
▁hipote 999
▁sliki 999
▁Ste 999
▁svojimi 999
mente 999
▁osvoji 999
ševanja 999
▁duho 999
teh 999
], 999
▁številne 999
▁nami 999
▁veza 999
▁Inter 999
▁njihov 999
▁RA 999
▁občutek 999
▁metode 999
▁opravlje 999
▁mnogo 999
▁metrov 999
▁razkri 999
tvami 999
▁širi 999
▁organizacija 999
▁klo 999
▁sliša 999
▁intenzi 999
▁državnega 999
▁ženska 999
▁spremenljiv 999
▁neke 999
▁specifi 999
▁šlo 999
čaj 999
▁velikih 999
▁notran 999
▁njihova 999
▁zagotovo 999
nimo 999
▁zav 999
▁stare 999
lnost 999
▁rok 999
▁splošno 999
▁problemati 999
▁II 999
▁prikazuje 999
▁2005 999
▁namesto 999
▁pad 999
SE 999
▁poslovne 999
npr 999
▁posledično 999
▁gotovo 999
▁Ena 999
mbi 999
vam 999
wi 999
▁prišli 999
▁bio 999
▁najboljši 999
▁izve 999
žbo 999
doma 999
▁kombina 999
▁skra 999
▁Kr 999
znih 999
▁Bra 999
▁Vz 999
valcev 999
▁višje 999
es 999
▁hitre 999
▁cerk 999
▁voda 999
▁prene 999
▁Pomem 999
▁KO 999
▁Ima 999
com 999
▁« 999
▁prev 999
▁nakup 999
▁osredoto 999
▁kora 999
nsk 999
▁rekla 999
▁EUR 999
▁hrva 999
▁franco 999
▁kapitala 999
hodno 999
1). 999
▁odločitve 999
▁SP 999
▁izzi 999
▁Mor 999
črt 999
lka 999
štvu 999
▁manage 999
▁besedah 999
verje 999
dniki 999
.201 999
▁Nato 999
▁preso 999
▁koristi 999
tila 999
▁razmer 999
▁postane 999
▁invali 999
desetih 999
▁išče 999
▁državo 999
▁prevla 999
▁Otro 999
▁slad 999
▁telesa 999
rb 999
▁manjše 999
▁razen 999
▁učencev 999
▁organizaciji 999
▁servi 999
▁pone 999
▁izka 999
▁vodja 999
▁ha 999
▁Ban 999
dalje 999
▁nadomesti 999
renci 999
▁80 999
▁por 999
▁Delo 999
ntra 999
mini 999
tijo 999
▁bla 999
▁njega 999
▁zveze 999
▁maja 999
▁tretje 999
ljem 999
▁izredno 999
▁navo 999
ME 999
▁dokon 999
▁Nova 999
▁roke 999
▁postopka 999
▁zaple 999
vica 999
wa 999
ld 999
ly 999
▁bolnišni 999
▁natančno 999
▁bodi 999
25 999
▁zaje 999
▁zapr 999
žba 999
▁angle 999
▁delom 999
▁pravilno 999
▁izkaza 999
▁Fe 999
tniki 999
▁ugotovili 999
▁nameni 999
▁pogoje 999
▁ene 999
Na 999
▁pogled 999
▁udeležen 999
▁dobila 999
▁Misli 999
vin 999
sijo 999
ranih 999
▁hoče 999
▁DE 999
▁preprosto 999
▁vrsta 999
80 999
▁obiskoval 999
škim 999
▁sektor 999
▁sce 999
▁simbo 999
zneje 999
▁spra 999
▁prodaj 999
▁prostoru 999
▁naslov 999
▁opi 999
cha 999
▁njen 999
▁17. 999
zdrav 999
▁zanes 999
žem 999
▁gosto 999
mna 999
para 999
▁slovensko 999
oča 999
▁MO 999
jnih 999
biti 999
▁trenutku 999
▁podalj 999
▁kulture 999
▁prazni 999
▁objekti 999
▁komplek 999
solu 999
▁dokler 999
▁tip 999
▁Zakon 999
▁priložnosti 999
15 999
▁zajema 999
mak 999
alna 999
ris 999
2) 999
▁Rezulta 999
▁okre 999
▁mikro 999
▁NE 999
get 999
▁obsega 999
▁prote 999
▁napoveda 999
▁isti 999
▁ostale 999
▁kapital 999
▁družbo 999
tina 999
▁zaposlo 999
▁mle 999
▁račun 999
gani 999
▁sodelovanju 999
▁prihodnosti 999
▁preteklosti 999
jene 999
▁(201 999
▁gr 999
MA 999
ir 999
9). 999
spa 999
▁nekdo 999
▁preki 999
▁ska 999
▁intervju 999
▁politiko 999
žnega 999
▁prete 999
▁stek 999
▁obiska 999
▁postala 999
▁pošte 999
sek 999
▁doslej 999
jer 999
▁konf 999
▁obto 999
siona 999
ženj 999
snosti 999
▁zaveza 999
▁kakrš 999
▁kata 999
mar 999
vila 999
dovanje 999
▁povezo 999
▁našem 999
▁Gore 999
▁14. 999
▁predpo 999
▁pripomo 999
▁sled 999
▁mesec 999
▁cena 999
▁mati 999
▁uporablje 999
odsto 999
▁finančnih 999
▁grafi 999
▁mladih 999
čene 999
▁vrata 999
▁junija 999
dia 999
▁pristo 999
▁gledal 999
org 999
ščanje 999
▁modela 999
▁promo 999
▁zdravje 999
▁domo 999
govor 999
▁namenom 999
▁cm 999
▁višini 999
▁odvisno 999
dobno 999
▁Spre 999
▁13. 999
JU 999
▁prisi 999
▁festi 999
▁lestvi 999
▁kakšne 999
▁terja 999
valno 999
▁PRE 999
▁16. 999
▁analizo 999
▁obraču 999
▁sodelovanja 999
▁dožive 999
▁notranje 999
šno 999
gh 999
mula 999
▁javni 999
mla 999
▁reče 999
▁evropskih 999
▁sh 999
viša 999
▁rad 999
▁kadrov 999
▁računovod 999
▁vozil 999
▁štirih 999
▁večjih 999
▁večini 999
7). 999
▁potrebna 999
▁motivi 999
meno 999
▁septembra 999
▁učitelji 999
▁recimo 999
▁pomembne 999
▁zakonu 999
▁uporabnikov 999
4) 999
melj 999
▁komisije 999
Za 999
▁Najbolj 999
▁spu 999
▁pesmi 999
▁PRI 999
▁zahteve 999
▁žensk 999
3) 999
fri 999
▁obro 999
▁uro 999
kanje 999
▁zavze 999
▁podpisa 999
▁naša 999
▁Ke 999
▁Zna 999
▁ogleda 999
vljeni 999
▁gospodarske 999
▁enote 999
cep 999
▁razmere 999
▁strank 999
zujejo 999
▁izkori 999
pet 999
koho 999
▁programov 999
▁kaze 999
▁uporaba 999
▁2: 999
▁znamke 999
čko 999
▁vendarle 999
▁umr 999
▁fazi 999
▁sile 999
▁narave 999
fu 999
▁poši 999
bnimi 999
▁avgu 999
at 999
▁Ministr 999
▁knjižni 999
▁vsemi 999
▁Par 999
novo 999
▁spletni 999
▁testi 999
▁izpla 999
▁! 999
▁izpolnje 999
____ 999
▁70 999
▁pogleda 999
▁najboljše 999
snega 999
vljene 999
▁pogoji 999
rnik 999
▁seve 999
▁preosta 999
▁rezultati 999
▁območje 999
▁socialne 999
▁sklep 999
▁dobavi 999
▁posledice 999
▁mehani 999
▁Stro 999
▁Zdru 999
▁Bre 999
▁oble 999
▁žr 999
▁pogovarja 999
▁pomi 999
▁podpr 999
▁razvidno 999
rti 999
▁pristop 999
▁upoštevati 999
▁koali 999
1) 999
▁koša 999
▁vozila 999
pen 999
▁SE 999
▁funkciona 999
▁šolo 999
▁načrt 999
gan 999
rgani 999
vič 999
▁oceno 999
▁tveganja 999
▁pova 999
▁pridru 999
▁usmeri 999
▁Gi 999
▁febru 999
▁dokaza 999
▁vstop 999
prt 999
▁vidimo 999
▁primerno 999
▁nastaja 999
▁videti 999
titu 999
▁zunaj 999
▁dolarjev 999
ščina 999
▁znanstve 999
▁zavarovalni 999
▁dejanja 999
▁New 999
▁dolži 999
nskimi 999
▁tehnologije 999
dnica 999
dor 999
▁Zakaj 999
titi 999
Ko 999
▁cesti 999
▁sogla 999
▁česar 999
ssi 999
▁29 999
▁karti 999
▁boljši 999
▁tehnolo 999
70 999
snik 999
žnik 999
chi 999
▁vsebine 999
šla 999
▁železni 999
▁Evrope 999
▁ponovi 999
▁forma 999
▁2012 999
▁hotel 999
▁funkcije 999
lost 999
▁omogočajo 999
▁popol 999
sh 999
▁številnih 999
čje 999
▁et 999
▁vari 999
▁DO 999
▁km 999
▁32 999
njena 999
▁ukrepi 999
▁snovi 999
njeni 999
ščini 999
▁Vsak 999
▁Ško 999
▁hrani 999
▁izpostavi 999
▁dohod 999
▁mimo 999
▁končno 999
▁slike 999
▁določen 999
▁metoda 999
stične 999
▁postaja 999
13 999
▁komisija 999
tke 999
▁izkušenj 999
▁upravljanje 999
▁zgodi 999
▁uvaja 999
▁koncentra 999
Ne 999
IS 999
▁občini 999
ANJE 999
CE 999
▁našega 999
▁soboto 999
▁pravila 999
▁kolo 999
▁tekma 999
▁45 999
▁izračuna 999
lem 999
▁dal 999
▁obvesti 999
▁Poli 999
▁odgovornosti 999
▁opredelje 999
▁Kita 999
▁osnovne 999
▁postavlja 999
▁delavni 999
▁zadnje 999
▁redno 999
▁odločili 999
▁preden 999
▁enostavno 999
sod 999
▁karie 999
▁Špa 999
▁pridoblje 999
▁Zelo 999
▁pacien 999
tnikov 999
▁avtor 999
▁ostaja 999
▁tuje 999
▁glavo 999
ženo 999
▁roj 999
rnice 999
jskem 999
▁vsakem 999
▁preiska 999
DP 999
▁Jože 999
▁SK 999
▁fakul 999
▁dija 999
▁zgor 999
cipli 999
▁marca 999
▁regiona 999
▁nekako 999
mno 999
ut 999
▁naba 999
▁Kranj 999
▁izkoristi 999
▁star 999
▁boš 999
▁delovnega 999
▁zakoni 999
▁prilaga 999
▁daleč 999
▁vše 999
▁prebivalstva 999
▁list 999
▁marke 999
pal 999
▁priklju 999
▁celotno 999
▁pano 999
▁razlika 999
▁ukrepov 999
▁oto 999
▁zdra 999
▁naved 999
leni 999
▁jezika 999
▁raje 999
rska 999
▁izvedbo 999
▁razlogov 999
▁poslovni 999
▁morejo 999
dio 999
0.000 999
▁njene 999
▁osebno 999
▁avtomobi 999
▁osred 999
▁procesu 999
▁dobra 999
▁samostoj 999
dimo 999
čanje 999
STI 999
▁zasno 999
pelje 999
▁Novi 999
lti 999
▁pravno 999
▁zunanje 999
▁Slo 999
▁finančne 999
▁praksi 999
▁Najprej 999
▁dimen 999
▁oza 999
zori 999
ndika 999
čkov 999
▁razsta 999
▁področjih 999
stično 999
▁posoji 999
njujejo 999
▁njegovem 999
rečo 999
▁odnosov 999
▁hiše 999
▁potreb 999
▁zagotoviti 999
▁2013 999
▁našte 999
bolje 999
▁gu 999
▁Drugi 999
▁prometa 999
▁prostovolj 999
▁dodaja 999
nc 999
▁2003 999
90 999
▁mesecih 999
▁desetlet 999
▁video 999
▁oktobra 999
▁zbor 999
▁Brita 999
▁tera 999
▁slabe 999
▁€ 999
8). 999
▁pome 999
▁196 999
▁naslednjih 999
kta 999
▁2002 999
▁proizvodnje 999
▁21. 999
▁ljubi 999
▁določi 999
▁organizacij 999
▁Usta 999
▁eti 999
▁neki 999
▁sindika 999
▁vsakega 999
▁njegovega 999
▁ekonomi 999
▁mlade 999
▁državne 999
▁parlamenta 999
▁analizira 999
▁vključuje 999
▁mesecev 999
▁zmog 999
▁bru 999
vanih 999
.) 999
▁verja 999
njen 999
▁počasi 999
sor 999
▁procesov 999
▁koma 999
▁knjige 999
▁obnaša 999
▁meje 999
▁želja 999
▁ME 999
tati 999
▁vzgoji 999
▁uslu 999
▁zunanji 999
gita 999
▁gospodi 999
▁narediti 999
▁pojavlja 999
▁parki 999
rite 999
▁korak 999
ščih 999
▁pripelja 999
▁plači 999
▁nezna 999
kove 999
▁politične 999
▁stari 999
▁aprila 999
▁decembra 999
▁Druga 999
sije 999
▁Q 999
▁želeli 999
▁starosti 999
▁tiska 999
▁prišla 999
▁najpogoste 999
tuje 999
▁govorimo 999
▁ori 999
▁Pr 999
▁odgovornost 999
▁orod 999
▁odbora 999
▁ipd 999
▁proračuna 999
▁miši 999
▁neposred 999
vedi 999
▁Število 999
hoda 999
▁različi 999
▁sistemov 999
▁varstvo 999
5) 999
▁društva 999
▁redu 999
▁alkoho 999
rup 999
▁obso 999
▁upoko 999
▁doseči 999
▁31 999
AR 999
dan 999
.1. 999
▁zalo 999
▁delno 999
šnjem 999
▁vojne 999
▁8, 999
▁zadeva 999
▁jezik 999
▁takšno 999
meti 999
▁razlog 999
▁33 999
▁sekre 999
▁praktično 999
▁dobrih 999
▁90 999
lini 999
▁barve 999
▁premalo 999
▁mm 999
.200 999
sija 999
▁polet 999
▁instru 999
stnega 999
▁tujih 999
▁izdelka 999
▁izlo 999
deset 999
▁samosto 999
▁veri 999
▁turni 999
▁Jugo 999
▁Nekateri 999
dnikov 999
▁imeno 999
angl 999
▁odstav 999
▁prodajo 999
▁premaga 999
6) 999
▁svetovni 999
▁mode 999
lani 999
vine 999
▁odvisna 999
▁žal 999
▁navz 999
▁trener 999
fer 999
▁lep 999
/> 999
▁Mislim 999
▁primerov 999
▁polno 999
▁regu 999
▁soli 999
trt 999
41 999
▁takih 999
▁reali 999
les 999
▁Pov 999
rko 999
selno 999
▁poslovanje 999
seni 999
CA 999
▁nju 999
tnika 999
formi 999
▁zadovo 999
čenja 999
▁obstajajo 999
▁center 999
▁JE 999
▁Leto 999
▁revizi 999
▁zakonoda 999
▁norma 999
reja 999
.30 999
▁prou 999
▁Osno 999
mentu 999
.2. 999
▁3: 999
gniti 999
▁dosegli 999
▁ola 999
▁vodenja 999
▁Por 999
▁različnimi 999
UP 999
▁izhodi 999
▁Organi 999
▁vsekakor 999
gap 999
▁izpostavlje 999
▁izpolni 999
▁Veli 999
ščajo 999
▁Peter 999
vadi 999
▁tujini 999
OR 999
▁Cer 999
▁ustreza 999
▁žo 999
▁vele 999
▁bliži 999
▁januarja 999
▁motor 999
▁kompone 999
▁anketirancev 999
▁aktu 999
▁posne 999
kali 999
▁videli 999
▁Pose 999
teti 999
▁takšne 999
volu 999
▁projektov 999
▁našli 999
▁vsaki 999
▁uteme 999
nike 999
trej 999
▁pozneje 999
drža 999
▁listi 999
vje 999
▁sne 999
▁materiala 999
▁likov 999
rki 999
▁poškodo 999
▁kva 999
▁bistvu 999
stom 999
▁spletnih 999
▁močne 999
▁politika 999
▁ogrom 999
▁vprašanj 999
▁Hu 999
bur 999
▁inšpek 999
rami 999
▁kulturo 999
75 999
▁povedala 999
▁pev 999
dujejo 999
▁strokovno 999
▁opremo 999
▁razlaga 999
▁vsaka 999
▁politično 999
▁odi 999
▁demokra 999
▁gospodarstva 999
▁muze 999
▁delovnem 999
▁pozornost 999
▁temi 999
▁dinami 999
zah 999
▁točko 999
▁sen 999
im 999
▁gospodarstvo 999
▁obremeni 999
▁Pra 999
▁raven 999
drav 999
▁kakšna 999
▁teoreti 999
▁zanimivo 999
▁odpi 999
▁Italija 999
▁prenaša 999
▁blizu 999
▁priljublje 999
▁IZ 999
▁uporabili 999
▁avtomobil 999
▁naprave 999
▁gor 999
▁problemov 999
▁povpra 999
▁ministrstva 999
▁uspeh 999
▁predstavili 999
▁pake 999
▁petih 999
▁sprej 999
▁delavci 999
▁Tele 999
kova 999
▁sklada 999
▁pogodbo 999
tine 999
▁Gro 999
▁prebivalcev 999
18 999
▁igro 999
njeno 999
▁vemo 999
▁vztra 999
bilnost 999
▁Pos 999
▁Novo 999
▁takšnih 999
dnji 999
▁namera 999
▁Res 999
▁oblikovanje 999
tis 999
džar 999
▁olimpi 999
▁intera 999
▁poglavju 999
tiranih 999
48 999
▁slovenska 999
▁Tra 999
▁take 999
▁Bru 999
▁zapored 999
▁Razi 999
▁ministrstvo 999
▁profi 999
kovo 999
▁ceste 999
▁poh 999
▁smer 999
▁komenta 999
▁pozitivno 999
▁pokraji 999
▁TE 999
19 999
▁sposobnost 999
▁predmet 999
▁razmerje 999
▁sezoni 999
▁delujejo 999
▁duše 999
▁ša 999
▁zlora 999
▁anti 999
▁predstavniki 999
tnimi 999
ranjem 999
rin 999
▁naredili 999
▁banka 999
ževanje 999
▁Stra 999
zom 999
▁podatkih 999
▁klub 999
▁vloge 999
▁strategije 999
ZS 999
▁speciali 999
▁krize 999
▁Janez 999
ts 999
▁RE 999
▁zao 999
▁velikosti 999
ganja 999
▁pokaže 999
▁obram 999
▁tedna 999
▁cilji 999
▁katera 999
▁ponudbe 999
vice 999
▁vodenje 999
▁povezave 999
▁resnici 999
vijo 999
▁začetek 999
▁bri 999
▁prista 999
▁smrti 999
▁vasi 999
▁pode 999
▁povra 999
redu 999
▁prijatelji 999
ron 999
▁otrokom 999
▁36 999
▁devet 999
▁celovi 999
▁drži 999
lnice 999
▁optimi 999
▁edini 999
▁daja 999
▁TV 999
▁2014 999
▁trije 999
▁vgra 999
bijo 999
▁smrt 999
sili 999
▁hrane 999
▁Večina 999
▁odgovarja 999
▁spremembo 999
▁niče 999
▁koor 999
lcem 999
▁bliž 999
▁poročilo 999
▁veče 999
▁narod 999
▁oblju 999
▁zbora 999
snost 999
zaciji 999
Ma 999
▁največje 999
danje 999
▁dosegel 999
▁Ča 999
▁kolegi 999
▁pokazala 999
▁popla 999
▁spletne 999
▁odstrani 999
▁ugo 999
bre 999
▁koncer 999
▁Skupaj 999
▁vreme 999
▁evropske 999
,0 999
lozo 999
▁vrh 999
▁konflik 999
▁poročila 999
▁julija 999
IN 999
▁pripravili 999
▁petek 999
▁ponudbo 999
▁dejavnikov 999
▁všeč 999
brž 999
▁neneh 999
▁moram 999
▁unije 999
MO 999
▁tista 999
tari 999
▁novembra 999
▁naravo 999
▁super 999
▁brezpla 999
▁pis 999
16 999
teli 999
▁zanj 999
▁domače 999
vor 999
nal 999
logije 999
▁četrt 999
komu 999
▁organizacijo 999
dnim 999
▁agre 999
▁želel 999
▁preto 999
hor 999
valca 999
▁slabi 999
▁Morda 999
▁arhitek 999
▁olajša 999
▁Itali 999
▁gibanja 999
▁dvakrat 999
.000 999
14 999
ternati 999
▁reda 999
igra 999
▁sliko 999
▁izre 999
▁zapusti 999
▁dokaj 999
dago 999
▁Vlada 999
▁povezana 999
▁nare 999
▁napake 999
▁potrebne 999
▁Sko 999
▁reči 999
▁poraz 999
njski 999
▁globo 999
▁letom 999
▁nave 999
▁dekle 999
▁Pogo 999
▁bodisi 999
▁OB 999
7) 999
kal 999
bnim 999
▁Gu 999
▁zaposlitve 999
▁ekolo 999
▁samega 999
čku 999
▁6: 999
55 999
šli 999
▁najbolje 999
▁DA 999
pel 999
sje 999
▁programu 999
▁2001 999
▁zavrni 999
▁odlično 999
TV 999
▁sle 999
▁kemi 999
ščino 999
▁lastne 999
▁dedi 999
▁domov 999
▁ven 999
▁osnovnih 999
▁zavi 999
torjem 999
▁demokrati 999
▁prenos 999
▁Srbi 999
mani 999
▁pravijo 999
▁besed 999
▁sklad 999
deljo 999
▁mot 999
▁povze 999
▁njena 999
▁napi 999
▁pli 999
▁energijo 999
kcija 999
▁referendu 999
zmu 999
▁Skup 999
▁uspešnosti 999
▁prome 999
▁čisti 999
▁domne 999
▁končni 999
▁nedeljo 999
▁sprejme 999
▁slovenskem 999
šič 999
rjena 999
▁is 999
▁San 999
ljeno 999
▁razpravlja 999
▁pomanjk 999
▁civi 999
▁ogre 999
vljenih 999
▁izdaja 999
▁magi 999
". 999
nine 999
▁sod 999
▁delajo 999
▁višji 999
▁ugod 999
glej 999
dnika 999
▁širše 999
▁odnose 999
▁samoza 999
žujejo 999
▁Olimpi 999
pali 999
▁obda 999
▁profesiona 999
▁tero 999
▁Jugosla 999
▁dobe 999
▁omrežja 999
▁prijatelj 999
bov 999
▁izvajanja 999
ferenci 999
▁skupnost 999
▁dreve 999
▁vsebino 999
▁Podjetje 999
ljeni 999
▁parti 999
ženci 999
▁stališča 999
▁začetka 999
▁500 999
letno 999
▁ume 999
dec 999
▁Celje 999
lizira 999
ščeni 999
▁družino 999
novati 999
▁SO 999
▁mestih 999
▁osebnih 999
▁nista 999
KI 999
BA 999
▁nepravi 999
▁zavarovanje 999
cal 999
▁projekti 999
rjenja 999
gori 999
▁upravljanja 999
▁razmerja 999
▁analiza 999
", 999
▁popravi 999
hodne 999
▁ekipa 999
▁izdelke 999
▁sovra 999
▁dogodkov 999
čevanju 999
▁Sam 999
▁posebne 999
▁dovoli 999
▁tere 999
mentira 999
▁ostala 999
▁uje 999
onal 999
▁pada 999
43 999
▁9, 999
▁tistega 999
▁Potre 999
▁varstva 999
jočih 999
▁odločil 999
▁posameznik 999
▁poče 999
▁resnično 999
škimi 999
voj 999
▁odjema 999
žb 999
▁Cen 999
šujejo 999
blika 999
▁digita 999
▁potrebujejo 999
▁zadovolje 999
▁nastavi 999
▁zamu 999
▁naročni 999
stični 999
▁preneha 999
42 999
▁Nekaj 999
šem 999
▁seji 999
▁povečanje 999
▁22. 999
▁Gr 999
▁malce 999
▁preob 999
▁finančno 999
:2 999
Ka 999
▁medijev 999
▁osnovno 999
torje 999
lacijo 999
LOV 999
▁problema 999
MI 999
enkrat 999
tacije 999
▁r 999
ard 999
▁zaščite 999
▁domu 999
▁stoji 999
▁elementov 999
peten 999
▁letal 999
▁družbeno 999
▁energet 999
žitev 999
▁manjka 999
ok 999
▁pojas 999
▁visoke 999
ficien 999
05 999
▁enot 999
▁povprečju 999
lice 999
▁# 999
▁ureditev 999
▁njihovega 999
▁usposo 999
▁zakonom 999
▁izdelek 999
▁povedati 999
▁Takš 999
▁dodal 999
▁nadzora 999
17 999
▁nekoč 999
▁razumevanje 999
lil 999
slika 999
stribu 999
▁zavarovanja 999
pijo 999
▁300 999
▁našo 999
činek 999
▁odre 999
▁ugotoviti 999
▁pogojev 999
▁temo 999
▁programi 999
mos 999
ft 999
SO 999
tami 999
▁politiki 999
▁dogo 999
▁Bla 999
▁Medtem 999
▁Brez 999
▁oceni 999
▁pravne 999
▁izpi 999
▁hitrost 999
rjeno 999
To 999
▁10, 999
▁posnet 999
▁Oba 999
čim 999
naprej 999
▁Slovenski 999
rnim 999
97 999
lah 999
▁pripravljeni 999
▁državnih 999
▁kru 999
▁Man 999
▁ostalo 999
▁zoper 999
▁izvajajo 999
▁seg 999
▁namenjen 999
nico 999
▁gospoda 999
▁določ 999
▁okolj 999
rekven 999
▁dirka 999
njske 999
dmini 999
▁najem 999
▁prima 999
▁avgusta 999
▁izmenja 999
dja 999
sednik 999
▁predpisa 999
▁pozornosti 999
▁ukrepe 999
▁vsake 999
▁uso 999
▁uporabniki 999
▁učenje 999
vrsti 999
▁letno 999
hom 999
▁relativno 999
▁delovni 999
▁mnogi 999
▁vojni 999
▁naju 999
▁meta 999
▁kam 999
logija 999
▁minima 999
▁vodstvo 999
▁spravi 999
▁škod 999
zil 999
▁podpira 999
▁februarja 999
▁točki 999
▁PRO 999
▁odloč 999
gal 999
▁privo 999
▁uslužbe 999
▁avstri 999
▁najdemo 999
▁sporočila 999
▁premoženja 999
▁Slovenci 999
rski 999
▁sprememba 999
JI 999
▁Zo 999
▁teča 999
▁osnovni 999
▁argu 999
ščin 999
▁bistve 999
▁jezikov 999
▁prihodkov 999
▁aktivnost 999
▁namesti 999
▁različni 999
96 999
kup 999
▁real 999
▁pošilja 999
▁We 999
▁uveljavlja 999
▁mediji 999
▁izbere 999
▁besedi 999
▁naf 999
▁boj 999
merja 999
▁stol 999
▁obseg 999
▁določena 999
▁tiče 999
lili 999
/200 999
▁objektov 999
▁lastno 999
ziji 999
▁knjiga 999
PE 999
šnjega 999
▁ljubezni 999
lacija 999
▁sezone 999
žek 999
▁zaščito 999
▁odve 999
pisuje 999
▁njenih 999
▁usmerja 999
▁sprejeli 999
▁dese 999
▁brani 999
tske 999
▁prines 999
35 999
▁površine 999
▁službo 999
letna 999
viti 999
▁notranjo 999
9) 999
▁Lon 999
▁Dr 999
ščanja 999
▁zadol 999
95 999
▁imate 999
▁interpre 999
dministra 999
gnil 999
▁organ 999
▁samou 999
▁discipli 999
▁tuj 999
▁določeni 999
▁korist 999
46 999
▁pooblasti 999
▁podaljša 999
▁kriv 999
jutraj 999
▁usklaje 999
tona 999
▁ostane 999
▁nekdanji 999
▁ozem 999
▁ben 999
▁pija 999
▁nikakor 999
▁privla 999
▁zgoraj 999
▁sprejeti 999
▁postopkov 999
▁Koper 999
▁vrača 999
▁kolekti 999
▁snema 999
▁Rezultati 999
▁vnaprej 999
eficien 999
▁odpadkov 999
▁Ura 999
ad 999
▁statistično 999
▁posameznikov 999
▁zastopa 999
▁čimer 999
▁zavr 999
▁dejavniki 999
▁načine 999
▁milijarde 999
▁političnih 999
▁En 999
▁at 999
---- 999
8) 999
glednica 999
lk 999
▁pogoste 999
▁učinkovitost 999
▁pomemb 999
▁namenjena 999
tski 999
zadnje 999
▁zgodba 999
ANA 999
rekti 999
id 999
bljeni 999
▁bank 999
čeva 999
▁skupni 999
▁ljudmi 999
▁tipa 999
▁mogel 999
▁3.1 999
▁oblik 999
▁časom 999
pada 999
▁prepoveda 999
teljem 999
▁poz 999
SI 999
▁želje 999
▁spominja 999
kcijo 999
▁znano 999
▁povezane 999
ravno 999
▁hitrosti 999
žele 999
▁mednarodnih 999
▁naslovom 999
▁Sch 999
▁podeli 999
jnega 999
▁KA 999
▁socialnih 999
▁Nor 999
▁dato 999
▁učenja 999
▁roka 999
▁delnic 999
▁integra 999
▁denimo 999
lnikov 999
▁porabni 999
▁družini 999
▁Mariboru 999
▁modu 999
▁Ši 999
▁Gospod 999
▁Njih 999
▁neiz 999
▁Univer 999
▁men 999
is 999
▁prepričan 999
▁videl 999
žjo 999
▁članice 999
▁kulturne 999
▁načina 999
ščen 999
33 999
▁nobene 999
▁ostal 999
▁reševanje 999
fon 999
▁alternati 999
▁dobimo 999
▁finančni 999
dovanja 999
▁sin 999
▁one 999
čenih 999
▁filma 999
▁aktivno 999
lim 999
▁dodatne 999
▁23. 999
▁Euro 999
47 999
▁Per 999
▁Odlo 999
▁dekli 999
era 999
▁strokovnjaki 999
▁nezado 999
▁kita 999
▁0. 999
▁evropski 999
▁hudo 999
▁kvalite 999
▁pojasnil 999
▁mednarodne 999
DV 999
▁tveganje 999
▁Vpraša 999
▁navija 999
BI 999
▁podjetjih 999
▁reli 999
▁napak 999
zorec 999
▁VI 999
▁rezer 999
▁tema 999
▁195 999
▁vino 999
▁vpisa 999
▁Anali 999
▁kilometrov 999
kujemo 999
▁ured 999
▁Njiho 999
▁38 999
jst 999
▁2004, 999
ting 999
▁Slovenske 999
▁eviden 999
beti 999
▁družbene 999
▁točno 999
▁2008, 999
▁šel 999
vim 999
▁nekje 999
vci 999
▁op 999
▁pregleda 999
▁srečo 999
ziti 999
▁osa 999
▁okra 999
▁človekovih 999
▁Takrat 999
▁dvaj 999
▁Toma 999
▁obenem 999
▁deve 999
▁funkcijo 999
▁izpelja 999
▁gospodinj 999
▁ekipe 999
▁učinek 999
▁stanju 999
▁lik 999
▁meja 999
▁krog 999
▁prebra 999
▁poste 999
▁proto 999
▁predstavil 999
▁naložbe 999
▁komi 999
▁nogomet 999
▁odse 999
▁vloga 999
▁dolga 999
▁Car 999
▁privošči 999
vaj 999
▁nev 999
šje 999
▁hiši 999
valna 999
▁kluba 999
dija 999
▁nasprotju 999
▁ocene 999
▁odso 999
▁oprede 999
▁ustrezne 999
▁brita 999
▁cesta 999
▁manda 999
▁kolesa 999
▁(5 999
▁poravna 999
njene 999
▁uspešnost 999
▁Kdo 999
ljen 999
▁oglaše 999
▁bele 999
▁inovati 999
▁odigra 999
štev 999
▁jutri 999
PI 999
▁potreba 999
msko 999
▁dosti 999
▁signa 999
▁rekli 999
▁Prva 999
▁mednarodni 999
▁sredo 999
temati 999
▁inova 999
▁kompeten 999
▁zastavlje 999
▁koordina 999
▁37 999
▁razno 999
▁pripove 999
▁sistemi 999
▁nobenega 999
▁osebnost 999
▁lastnik 999
▁trenin 999
bar 999
▁material 999
ZA 999
▁2007, 999
▁inštitu 999
▁številu 999
▁prejšnji 999
▁Namen 999
▁plasti 999
▁mened 999
▁lokalne 999
▁medseboj 999
▁Ur 999
▁imena 999
▁operati 999
▁razredu 999
▁avtoce 999
▁? 999
čitve 999
▁pedago 999
▁omenja 999
▁ponavadi 999
▁Os 999
▁zasta 999
▁učinkovitosti 999
▁mojem 999
▁noč 999
▁kupcev 999
▁njeni 999
▁anketiranih 999
▁2.1 999
▁dopol 999
▁maksi 999
▁polju 999
▁pripravo 999
▁socialni 999
pil 999
▁2006, 999
▁strah 999
čejo 999
▁Ugotovi 999
lič 999
dij 999
▁Koro 999
▁stopnji 999
▁Saj 999
▁članic 999
om 999
▁spada 999
škodni 999
▁dejanje 999
▁filozo 999
▁zadovoljstvo 999
▁tiskov 999
danji 999
nstvo 999
hov 999
▁svetovnega 999
tki 999
▁moških 999
▁volitvah 999
▁celotne 999
▁RAZ 999
▁poudaril 999
▁pogre 999
žjih 999
zozem 999
▁lasti 999
▁modeli 999
▁moja 999
BE 999
▁manjša 999
ljena 999
▁četrti 999
▁izvedbe 999
▁pojavljajo 999
▁cerkve 999
▁zemlje 999
▁Sem 999
▁naravi 999
▁34 999
▁zadr 999
cro 999
▁položaja 999
ković 999
▁zaslo 999
SA 999
▁pričakuje 999
kratka 999
deks 999
▁izven 999
▁zares 999
▁bral 999
neta 999
kimi 999
▁odbor 999
▁krogu 999
▁4.1 999
▁neva 999
▁viri 999
ČI 999
▁skrb 999
▁zgodbe 999
turi 999
▁marketin 999
22 999
▁letni 999
▁Ale 999
rejo 999
▁kamor 999
valnega 999
bilnosti 999
▁resno 999
▁poslovnega 999
vse 999
▁trgo 999
▁zakonodaje 999
▁priporoči 999
▁takšen 999
▁najbrž 999
▁gibanje 999
▁spom 999
▁dalje 999
▁prihodnost 999
▁tožil 999
▁razreda 999
▁kontek 999
▁hrano 999
▁kraje 999
▁Dol 999
▁Teh 999
▁narašča 999
lniki 999
tkov 999
▁naredil 999
GO 999
▁konferen 999
▁distribu 999
▁Mladi 999
žev 999
KE 999
▁sej 999
▁tistim 999
▁povezavi 999
pec 999
▁financiranja 999
▁odrasli 999
nga 999
▁najti 999
▁status 999
▁obdobja 999
litev 999
nesna 999
▁starih 999
▁Zve 999
▁minuti 999
▁prejem 999
▁zadovoljni 999
▁nareje 999
▁doživlja 999
▁posamezniki 999
▁neda 999
minali 999
▁ST 999
▁%. 999
▁Her 999
▁spomi 999
▁datu 999
merci 999
▁enak 999
oti 999
▁tedaj 999
▁izte 999
▁psihi 999
▁polni 999
▁predstavitev 999
▁razpravo 999
▁naklo 999
▁priva 999
▁hitrej 999
ČE 999
▁orodja 999
speri 999
▁smiselno 999
▁2002, 999
▁knjigo 999
▁gospodarsko 999
▁0,00 999
pol 999
▁y 999
▁Tur 999
▁baze 999
.3. 999
▁količine 999
govorni 999
▁Splo 999
▁30. 999
▁navduše 999
▁pristojnosti 999
▁izdelavo 999
▁Predvsem 999
cioni 999
▁raziskavi 999
kola 999
▁svetovno 999
▁proizvodnjo 999
▁treni 999
▁izbira 999
▁oblast 999
▁ogle 999
dli 999
▁izboljšanje 999
▁ceni 999
▁Tam 999
▁zaposlene 999
▁rekor 999
▁2005, 999
▁dodatnih 999
▁moji 999
▁(4 999
▁delov 999
▁zjutraj 999
tko 999
▁stalno 999
▁sprejet 999
delj 999
▁žival 999
▁42 999
▁odhod 999
▁skupne 999
▁svoja 999
▁miru 999
▁gospodarskih 999
▁odškodni 999
▁nogometa 999
▁velikokrat 999
žimo 999
▁she 999
▁refor 999
▁ljudem 999
vanjih 999
** 999
▁zdravstvene 999
▁kvalifika 999
soci 999
▁družina 999
▁opozi 999
▁nagrado 999
▁takega 999
▁25. 999
▁Podat 999
▁ukrepa 999
▁Ter 999
▁celotnega 999
▁živ 999
▁vero 999
▁krepi 999
▁poslovno 999
▁kopi 999
▁avtobu 999
nan 999
▁Sledi 999
ljujejo 999
▁miš 999
65 999
▁poeno 999
dnja 999
▁nasto 999
▁morem 999
▁želim 999
pih 999
zirani 999
▁črno 999
32 999
▁razlik 999
▁šta 999
▁opremlje 999
▁Povpre 999
▁sporočilo 999
ščo 999
▁državami 999
▁povezani 999
▁bližini 999
▁administra 999
▁ministra 999
▁razgla 999
rica 999
lete 999
▁Izo 999
▁zmanjšanje 999
▁vključno 999
turo 999
stniki 999
▁For 999
ny 999
▁jeziku 999
▁mr 999
gno 999
▁kame 999
▁izkušnja 999
žejo 999
tura 999
▁redko 999
upan 999
▁spi 999
▁nazadnje 999
▁ov 999
▁praviloma 999
▁republi 999
▁Moj 999
▁albu 999
dre 999
šta 999
▁značilno 999
ščena 999
▁pomembnih 999
▁izraz 999
▁kolesar 999
▁Zanimi 999
▁umetnosti 999
▁jeze 999
▁Dobro 999
▁špa 999
▁kmeti 999
▁sestavlja 999
▁dneva 999
▁dosež 999
▁zvečer 999
sila 999
▁delovna 999
▁opravljajo 999
▁plač 999
▁mari 999
han 999
▁uda 999
nsi 999
▁prih 999
▁naslova 999
▁SA 999
ak 999
▁naklju 999
▁MA 999
▁predloga 999
▁vizu 999
▁3.2 999
▁besedila 999
▁prilagaja 999
▁lokalnih 999
▁presto 999
SD 999
juje 999
▁scena 999
▁počitni 999
▁nastop 999
▁športni 999
žemo 999
tec 999
bija 999
▁vojno 999
▁podpore 999
▁pret 999
nko 999
▁novim 999
▁rada 999
▁nižje 999
▁ameriški 999
nic 999
nite 999
klu 999
▁upošteva 999
▁župan 999
▁boji 999
▁Evropski 999
▁ocena 999
▁izdelki 999
jenih 999
▁policije 999
▁vedo 999
▁pravil 999
▁tle 999
▁odgovorov 999
rat 999
▁agencije 999
▁začelo 999
▁povprečno 999
▁lastnih 999
▁Pomembno 999
▁namene 999
▁gradnjo 999
▁pomembni 999
gija 999
▁neuspe 999
▁nez 999
▁opravljanje 999
▁škodo 999
▁brezposel 999
▁up 999
▁strinjam 999
▁Eden 999
mil 999
RU 999
we 999
67 999
kladi 999
rjen 999
▁mednarodno 999
▁primanj 999
it 999
▁količina 999
▁modelo 999
▁nemo 999
▁velikega 999
▁prehod 999
▁osebo 999
▁položaju 999
▁dogodek 999
plja 999
znega 999
▁starejši 999
bla 999
deljek 999
▁ustano 999
▁predela 999
bimo 999
▁kampa 999
▁pogodba 999
▁notranji 999
▁vodje 999
▁zahtevajo 999
▁iskanje 999
▁onesna 999
▁delati 999
▁zgodovini 999
like 999
▁cve 999
bert 999
▁Deja 999
▁sodeluje 999
▁umak 999
................ 999
▁objekta 999
topi 999
dejo 999
▁njihovem 999
▁multi 999
▁1999 999
▁velikost 999
▁krimina 999
et 999
▁domačih 999
▁tržni 999
▁nalogo 999
▁podaja 999
PA 999
nitev 999
▁biv 999
▁2003, 999
▁preži 999
▁matemati 999
▁takšna 999
sja 999
▁400 999
▁Vele 999
▁Oce 999
kati 999
▁dobička 999
▁sila 999
▁vlogi 999
▁študentov 999
▁Au 999
▁0,5 999
▁prite 999
▁srb 999
▁stališče 999
▁dobrega 999
▁plačilo 999
▁odme 999
▁produkti 999
▁nekega 999
▁desni 999
▁pretira 999
▁zdravstveno 999
▁gene 999
▁nego 999
▁načela 999
▁hrb 999
▁2009, 999
▁Primer 999
▁programe 999
▁kandidat 999
▁luk 999
▁TO 999
ževanja 999
▁tja 999
▁dali 999
obra 999
▁zboru 999
▁selek 999
▁dejstva 999
▁navadno 999
klja 999
▁prise 999
▁zau 999
▁Zakona 999
▁vedenje 999
▁emba 999
▁živijo 999
▁Evropska 999
▁Dela 999
▁možga 999
▁4: 999
▁odločila 999
▁komuni 999
rimo 999
▁oma 999
38 999
DO 999
▁pripravljen 999
▁milijard 999
▁šla 999
▁obravnavo 999
▁Nemčiji 999
▁direktorja 999
▁ključnih 999
lnici 999
▁ideje 999
▁Mur 999
▁koeficien 999
▁kuha 999
▁strukture 999
▁dosto 999
▁podjetjem 999
mski 999
▁SDS 999
▁normalno 999
▁točka 999
▁odstopa 999
▁pravni 999
▁pravica 999
lišča 999
▁varian 999
▁igralci 999
▁edina 999
▁LE 999
▁LJU 999
▁meseca 999
▁Londo 999
▁razlikuje 999
▁količino 999
▁približa 999
žič 999
▁Ptu 999
konom 999
▁četrtek 999
▁trgovine 999
▁politični 999
▁Celo 999
▁odpre 999
▁mogli 999
▁Wil 999
%) 999
92 999
▁Jugoslavi 999
rnimi 999
▁napada 999
PS 999
▁izbiro 999
▁kisli 999
▁družb 999
▁sedmi 999
▁največkrat 999
▁nenava 999
▁55 999
▁presega 999
demi 999
▁hitreje 999
▁ljubezen 999
▁migra 999
▁priprave 999
▁poseben 999
▁Mate 999
skr 999
▁določenem 999
▁žrtev 999
▁dokumentov 999
▁ZD 999
▁hišo 999
bujejo 999
▁uradno 999
ons 999
▁izgi 999
▁pridobitev 999
▁Sled 999
▁številko 999
▁stranki 999
▁društvo 999
tovi 999
▁električne 999
▁policisti 999
▁večer 999
▁primerna 999
▁ponedeljek 999
logijo 999
▁". 999
▁osebne 999
▁nespo 999
▁spremenje 999
▁24. 999
▁ogromno 999
▁glasbo 999
▁uporabljamo 999
▁Japo 999
▁kuhi 999
▁2.2 999
▁udeležencev 999
dla 999
▁davčne 999
rnem 999
▁razdelje 999
dobni 999
▁Kre 999
▁2015 999
▁mere 999
▁osebni 999
▁frekven 999
▁različna 999
▁cilja 999
▁izključno 999
▁nevarnosti 999
▁Bri 999
▁Con 999
▁nose 999
▁medsebo 999
▁sladko 999
▁sodelujejo 999
▁komaj 999
lica 999
44 999
▁pridobiti 999
▁pamet 999
▁Zdrav 999
zij 999
▁načrtu 999
mske 999
▁zgodovino 999
▁poslanci 999
rske 999
▁različno 999
▁dosegla 999
ff 999
kaz 999
▁odnosi 999
zite 999
▁sporočil 999
▁ministrstvu 999
▁PA 999
▁sprejel 999
▁Har 999
▁glavnem 999
▁Hkrati 999
▁2000, 999
▁zraka 999
▁standardi 999
rn 999
▁obdav 999
▁Nasled 999
▁pokazali 999
▁prekr 999
kanja 999
▁tole 999
▁Medna 999
▁nasilja 999
▁mono 999
▁uspešni 999
▁opravili 999
ken 999
lt 999
▁nudi 999
▁kg 999
▁Yor 999
▁nazi 999
▁Komisi 999
68 999
spekti 999
▁samem 999
dnem 999
▁kraja 999
▁pravnih 999
▁nega 999
rjene 999
▁prenese 999
▁OD 999
san 999
▁povečuje 999
▁visoka 999
▁aka 999
▁Soci 999
▁starost 999
ces 999
plete 999
▁organov 999
▁raziskav 999
▁enake 999
▁nizko 999
▁Slovenska 999
bnem 999
cionali 999
▁ekipo 999
▁orodje 999
voje 999
▁kraji 999
▁Preglednica 999
▁dejanj 999
▁prepri 999
▁zne 999
▁%, 999
žilo 999
▁podobne 999
▁Nad 999
koč 999
▁nivoju 999
▁podatek 999
▁ned 999
▁razlikujejo 999
▁novina 999
▁prvenstvu 999
▁spomni 999
▁prikaz 999
▁besedilo 999
▁vodil 999
▁ministri 999
/1 999
Če 999
▁Ver 999
▁prihajajo 999
mon 999
Mo 999
nilo 999
▁revolu 999
▁kvadra 999
▁dolg 999
▁peti 999
JO 999
niku 999
▁ničesar 999
▁podeže 999
▁predse 999
.). 999
▁najboljših 999
▁Svet 999
/0 999
leksi 999
slova 999
▁dobiček 999
▁naprav 999
▁številka 999
▁dejavnik 999
▁zanje 999
▁javnem 999
Mi 999
mne 999
bneje 999
▁silo 999
▁vstopi 999
.& 999
▁potrebujemo 999
MS 999
▁Ose 999
žju 999
▁sezono 999
Pa 999
njsko 999
▁sociali 999
▁eta 999
▁sodišču 999
▁nama 999
▁pokazal 999
her 999
tacijo 999
dnimi 999
▁obrazlo 999
▁doseganje 999
▁Program 999
joč 999
▁sabo 999
▁prejšnjega 999
belo 999
▁delnice 999
▁agencija 999
▁učinkovite 999
▁oddaja 999
▁naka 999
izo 999
▁obisk 999
▁blagovne 999
▁idr 999
▁disku 999
▁čo 999
deja 999
▁tipi 999
▁br 999
mir 999
▁nadaljuje 999
▁vedeti 999
▁sil 999
ščenje 999
▁vidim 999
PP 999
▁igralec 999
▁48 999
▁zre 999
▁Ivan 999
▁posameznega 999
▁prvenstva 999
▁75 999
dej 999
▁družbenih 999
▁učiteljev 999
▁Dne 999
▁diha 999
▁valu 999
NIH 999
▁mani 999
▁verjame 999
31 999
▁SD 999
▁načinu 999
▁strokovne 999
▁dostopa 999
▁odprt 999
36 999
▁policija 999
gon 999
▁interneta 999
▁pridela 999
▁plačila 999
▁dvorani 999
▁hiš 999
▁komuna 999
▁Var 999
najst 999
▁Wi 999
▁jaj 999
▁prosim 999
▁BI 999
▁zraven 999
▁suro 999
čeval 999
▁samostojno 999
▁pomagajo 999
▁svetovne 999
▁najpogosteje 999
▁prehi 999
jmo 999
▁12, 999
ley 999
▁okrepi 999
▁kor 999
▁evra 999
gotovo 999
▁poznajo 999
tsko 999
▁Eno 999
▁Andrej 999
▁reze 999
ou 999
▁vsebin 999
▁največja 999
dbu 999
▁imaš 999
nesel 999
stnik 999
▁prakse 999
▁° 999
▁Sedaj 999
▁150 999
▁njenega 999
▁naravna 999
jekt 999
zel 999
▁varu 999
▁vroči 999
toli 999
▁nasme 999
čajo 999
▁trajnost 999
Re 999
▁izvajanju 999
▁leži 999
jenje 999
Ta 999
▁tehnologijo 999
slov 999
lati 999
▁dnevni 999
▁povezavo 999
▁nagrade 999
▁izobrazbe 999
▁čustve 999
snem 999
▁Ljudje 999
▁umetnost 999
▁obisku 999
▁rah 999
cam 999
▁zgodbo 999
▁Cilj 999
▁eksperi 999
▁imata 999
znik 999
▁imenuje 999
▁as 999
▁menijo 999
▁Vod 999
▁potekala 999
▁oni 999
▁opis 999
▁moralo 999
▁Obe 999
▁sklopu 999
▁svetovnem 999
mes 999
▁zakonodaja 999
pina 999
gina 999
▁ravnanje 999
▁vsej 999
28 999
hodom 999
lniku 999
lino 999
▁j 999
jami 999
▁pojem 999
▁invalid 999
tero 999
▁Podobno 999
▁Mon 999
▁povr 999
▁vpi 999
▁slede 999
▁ogled 999
▁Ljubljane 999
▁sledijo 999
kovih 999
nič 999
nejšo 999
sim 999
▁gore 999
78 999
▁postavili 999
▁„ 999
▁ugotovitve 999
▁Foto 999
rjeni 999
▁vzorec 999
▁levi 999
▁tistem 999
▁korup 999
činkovi 999
▁preven 999
▁Posa 999
▁živo 999
▁imple 999
▁Bel 999
▁26. 999
▁zagotavljanje 999
leta 999
▁zdravja 999
nku 999
vobo 999
▁nanašajo 999
bini 999
▁zveza 999
▁komunikacije 999
▁ška 999
▁izvrši 999
▁Joh 999
▁plat 999
▁dnevi 999
▁Zače 999
▁primeren 999
▁nenehno 999
▁posebnih 999
▁65 999
▁analizi 999
▁omenjenih 999
.10 999
računa 999
▁sodelavci 999
ščeno 999
▁Najpo 999
pev 999
▁embala 999
skom 999
dim 999
lage 999
▁trenutek 999
▁tretjem 999
▁omejitev 999
▁investicije 999
ban 999
▁vzrok 999
▁Kadar 999
▁Poslo 999
▁odstotek 999
▁Ime 999
▁omeje 999
▁2010, 999
▁torek 999
▁kana 999
▁natančne 999
▁menda 999
▁dobijo 999
dite 999
BLJ 999
▁napetosti 999
▁nastala 999
▁Ministrstvo 999
▁načrta 999
▁sprejela 999
žnika 999
nemo 999
▁zača 999
▁mnogih 999
▁Verje 999
▁gol 999
▁priporoča 999
▁komuniciranja 999
▁uki 999
49 999
▁Zgo 999
▁državno 999
▁manjših 999
vajanje 999
▁željo 999
▁tok 999
▁4.2 999
▁Can 999
▁kriminali 999
▁ravnanja 999
bilo 999
▁slabše 999
▁Graf 999
▁odpelja 999
▁prislu 999
▁elementi 999
ljene 999
▁lige 999
▁posebnega 999
alnega 999
▁am 999
▁pripad 999
▁tremi 999
▁Izra 999
▁dala 999
▁vzame 999
▁komerci 999
stičnih 999
▁kupo 999
▁koncept 999
kala 999
▁temperature 999
▁absolu 999
▁dnevno 999
▁shranje 999
▁BDP 999
▁obvezni 999
lico 999
▁škode 999
▁prometu 999
▁1998 999
▁taka 999
▁2001, 999
dy 999
lične 999
ljenje 999
▁zakonodajo 999
ero 999
▁jedi 999
▁enaka 999
▁kak 999
▁Meto 999
▁finance 999
▁11, 999
▁Mno 999
▁služba 999
▁pozdrav 999
.: 999
▁pogoj 999
▁predvi 999
▁vedenja 999
▁pridejo 999
▁Franco 999
▁opozoril 999
▁narobe 999
▁zelenja 999
▁zadnja 999
letnega 999
▁strukturo 999
▁strokovnih 999
Pri 999
▁apara 999
plici 999
▁vrat 999
▁Žal 999
delitev 999
▁roma 999
tala 999
▁28. 999
▁pravlji 999
tično 999
lnica 999
kt 999
▁Sred 999
RAN 999
lnico 999
em 999
▁STA 999
▁probleme 999
▁vzdrževanje 999
▁Šen 999
▁predstavila 999
▁počne 999
▁spusti 999
gova 999
▁polovico 999
▁opravil 999
▁psiholo 999
▁študij 999
lila 999
▁kazen 999
▁kraju 999
▁predlogu 999
▁Fer 999
▁prireditev 999
▁obmo 999
▁27. 999
▁izena 999
▁preme 999
▁SIT 999
▁starejših 999
▁Ex 999
▁Tukaj 999
ana 999
▁Obi 999
bran 999
▁sooča 999
▁poobla 999
37 999
▁poškodbe 999
▁razloga 999
▁glavnih 999
▁Pari 999
▁Bil 999
▁institucije 999
▁aplikacije 999
▁načelo 999
▁nimamo 999
▁odob 999
▁poimeno 999
▁termi 999
▁udeleženci 999
▁seznam 999
gradnjo 999
▁odraža 999
▁časov 999
▁gost 999
▁knjigi 999
▁zanema 999
▁potreben 999
▁sprosti 999
▁krvi 999
▁potrju 999
▁šib 999
▁eli 999
tični 999
zajem 999
lcu 999
▁povezano 999
▁srečanje 999
▁prejeli 999
▁lepe 999
▁obča 999
▁izgube 999
▁39 999
▁odnosu 999
ime 999
▁nespre 999
▁nekakš 999
▁naravnih 999
▁vsakodne 999
▁vpo 999
▁napisal 999
arma 999
▁struktura 999
njenih 999
organi 999
▁sektorja 999
lije 999
▁uporabljati 999
lke 999
▁igralcev 999
▁odvze 999
▁Ana 999
▁zdravil 999
▁jugo 999
▁tehnike 999
litve 999
▁sektorju 999
▁nobenih 999
▁metod 999
▁misel 999
▁vsebujejo 999
▁), 999
▁informati 999
24 999
matično 999
▁Štu 999
▁največjih 999
▁", 999
▁učitelj 999
▁današnji 999
▁VE 999
▁nalogi 999
medi 999
▁nižji 999
▁razoča 999
▁oblikovanju 999
▁predpostav 999
TU 999
zar 999
De 999
lij 999
▁drugačen 999
▁Gor 999
NK 999
lus 999
vja 999
▁tleh 999
▁gradnje 999
ih 999
▁Glavni 999
▁datote 999
▁materialov 999
▁glavne 999
▁spomin 999
▁varno 999
▁premier 999
▁zaupanje 999
▁soro 999
vencije 999
▁straneh 999
venci 999
▁prio 999
▁šestih 999
nesek 999
▁izred 999
mm 999
26 999
▁evropskega 999
▁nemogo 999
▁mreže 999
kovega 999
▁podobo 999
ranega 999
▁spon 999
▁Bolj 999
▁karak 999
▁številni 999
▁juna 999
▁recep 999
27 999
▁begu 999
▁poznamo 999
▁faktor 999
loge 999
▁poiska 999
snika 999
▁31. 999
▁vodstvom 999
▁zahtevo 999
▁odklo 999
▁tur 999
▁Proble 999
▁lastniki 999
▁vedel 999
▁dobiti 999
▁hri 999
rjeva 999
▁Italiji 999
▁Dolo 999
▁Ču 999
lišče 999
SS 999
85 999
▁jedr 999
▁razumeti 999
▁oprema 999
▁Včasih 999
▁pridobili 999
▁ponavlja 999
▁utr 999
▁LJUBLJ 999
▁Bro 999
▁prostorov 999
▁objekt 999
▁Madžar 999
lena 999
▁zdravstvenih 999
▁okvir 999
navlja 999
rič 999
voda 999
▁procesi 999
▁kratkim 999
▁polovica 999
▁Igra 999
▁hiša 999
▁previ 999
▁posledic 999
▁imenom 999
▁element 999
▁nere 999
▁integri 999
▁Polj 999
ws 999
▁trgih 999
SKI 999
▁mote 999
▁izbrali 999
▁govoriti 999
▁Ža 999
▁Tru 999
▁plesa 999
▁višjo 999
▁vlado 999
▁RTV 999
▁izogiba 999
ct 999
njak 999
▁pripomoč 999
doval 999
▁ugotovitev 999
▁dolge 999
▁usposoblje 999
▁polovici 999
▁gimna 999
▁krmi 999
KOV 999
▁Mc 999
▁sloven 999
▁maribor 999
▁zavzema 999
▁fotografije 999
šanje 999
▁foru 999
▁desetih 999
▁upam 999
nki 999
▁razum 999
tacija 999
▁sliši 999
▁Zagre 999
▁istem 999
▁centru 999
▁Win 999
▁sporočili 999
▁tik 999
▁zmogljivosti 999
▁subjekti 999
▁vztraja 999
▁kulturno 999
▁hotela 999
▁aku 999
▁bolezen 999
▁omejitve 999
▁izroči 999
ščene 999
▁princi 999
vat 999
▁vladi 999
stična 999
▁Cerk 999
▁uporabnik 999
▁Posledi 999
▁zadovolji 999
▁obrni 999
par 999
▁težje 999
▁zemljišč 999
▁uprava 999
▁zagovarja 999
▁strokovni 999
▁vstopa 999
▁Bal 999
▁ponujajo 999
▁Miha 999
▁infrastrukture 999
▁bal 999
▁or 999
▁ekonomske 999
▁urah 999
▁dlje 999
▁prazno 999
▁poviša 999
▁zavoda 999
▁veljajo 999
dnost 999
▁biolo 999
celo 999
▁obr 999
▁volitve 999
▁zdravljenje 999
▁socialnega 999
4: 999
▁postav 999
▁Ch 999
kedo 999
tič 999
▁tekmovanja 999
šne 999
▁Kakš 999
▁interes 999
▁športne 999
čujemo 999
▁raziskavo 999
raje 999
▁zaosta 999
?« 999
▁Stre 999
▁rečeno 999
vomno 999
▁postali 999
▁46 999
▁registri 999
▁homo 999
▁mal 999
▁interesov 999
▁razmerah 999
▁Marko 999
▁trene 999
▁športnih 999
▁Kle 999
▁Otroci 999
čajno 999
▁41 999
▁mami 999
▁pogovor 999
21 999
▁prvenstvo 999
▁pomisli 999
▁državljanov 999
▁zdravila 999
▁vojske 999
▁sredstvo 999
▁dati 999
▁cest 999
▁šli 999
▁Ser 999
žina 999
▁zadrža 999
▁spremeniti 999
dove 999
▁St 999
▁pogla 999
▁dogajanje 999
nde 999
▁imelo 999
▁urba 999
▁telesu 999
▁sodelovali 999
▁Marja 999
lli 999
▁Koso 999
▁višja 999
▁povezanih 999
▁ligi 999
▁projektu 999
▁kakšni 999
▁člana 999
▁stanovanja 999
SKA 999
bliko 999
▁Osta 999
jšo 999
▁poslancev 999
▁prejel 999
▁zaplete 999
kultu 999
▁ukvarjajo 999
▁veso 999
▁široko 999
risa 999
▁želela 999
ed 999
▁utru 999
▁obremenje 999
▁popula 999
▁brezpose 999
▁takšnega 999
▁LJUBLJANA 999
vare 999
▁elektra 999
▁trav 999
▁govoril 999
▁roman 999
▁službi 999
▁tesno 999
▁zopet 999
▁odgovori 999
▁onemogo 999
▁znanosti 999
ligen 999
lektu 999
▁1000 999
23 999
▁sol 999
▁strukturi 999
▁najni 999
▁proračun 999
▁predstavnik 999
▁vsebo 999
tskih 999
▁Dom 999
▁Či 999
paci 999
▁smemo 999
▁fanta 999
▁luči 999
▁strategijo 999
▁ran 999
▁osu 999
▁odz 999
stavili 999
▁postopki 999
▁vzgoje 999
▁zabele 999
▁vodijo 999
▁pričakujejo 999
ya 999
▁Raziska 999
▁kratkoro 999
▁delovanju 999
▁knjig 999
▁29. 999
politi 999
čljivo 999
▁popoldne 999
▁končal 999
▁kralje 999
▁zgodovine 999
▁ana 999
▁Mla 999
▁levo 999
▁prave 999
▁sestavljajo 999
▁Afri 999
▁pričakovanja 999
▁vzbu 999
▁postavil 999
blo 999
▁tvori 999
▁programske 999
▁deleža 999
▁proizvodov 999
gnili 999
▁nevarnost 999
▁dokument 999
▁prilagodi 999
rkar 999
▁trditev 999
gije 999
▁skupnega 999
▁izvedli 999
šemo 999
▁mesecu 999
▁izdelo 999
▁pomanjkanje 999
uda 999
rice 999
stavek 999
novič 999
▁gospa 999
▁teorije 999
teljica 999
▁transpor 999
06 999
▁mejo 999
ljenih 999
▁izbiri 999
▁Dan 999
▁delih 999
rit 999
kna 999
▁BO 999
▁dovoljenja 999
▁oskrbo 999
hodnih 999
▁Name 999
▁višine 999
ing 999
▁pripada 999
stavra 999
▁mag 999
▁odločanja 999
▁prostorih 999
▁obstoj 999
▁smuča 999
▁CO 999
▁nadaljnje 999
cebo 999
▁razpolož 999
▁pogu 999
▁stavbe 999
▁študija 999
▁nika 999
▁vina 999
▁zadovoljen 999
▁gospodarski 999
▁vaš 999
▁kola 999
▁Vsekakor 999
▁ev 999
▁Dar 999
▁šteje 999
joča 999
▁obu 999
ća 999
▁1,5 999
▁strokovnjakov 999
▁Upa 999
▁Son 999
Ra 999
zgo 999
▁temeljnih 999
▁koga 999
▁stik 999
▁prekri 999
čja 999
koma 999
▁porabe 999
▁zaposlitev 999
▁Mogo 999
▁izpu 999
▁vsakda 999
▁desno 999
▁načrtovanje 999
▁zborni 999
▁43 999
▁rastli 999
▁Nizozem 999
▁spletno 999
▁cari 999
▁ona 999
▁rokah 999
▁preobliko 999
▁našel 999
▁vzorcev 999
▁plačati 999
▁tal 999
▁Velika 999
▁Pove 999
▁nadgra 999
tneje 999
▁teka 999
)) 999
▁uporabljali 999
▁Jer 999
šil 999
▁tova 999
▁opraviti 999
▁pretežno 999
▁Obstaja 999
▁Trenu 999
ročij 999
▁izgubil 999
▁5.1 999
RP 999
▁2.3 999
▁nastane 999
▁Or 999
▁obeta 999
▁odpa 999
ljivega 999
▁stara 999
▁vrnil 999
▁tabeli 999
AL 999
In 999
▁veste 999
▁3.3 999
šnjih 999
▁Predsednik 999
stavitev 999
sled 999
▁jeseni 999
▁odnosa 999
▁odločanje 999
čju 999
▁višino 999
▁priprav 999
▁47 999
▁vidijo 999
▁področij 999
▁uskladi 999
▁obnovi 999
▁povečala 999
▁opredeljuje 999
▁računalnik 999
▁nimam 999
▁DDV 999
demo 999
šna 999
▁fak 999
▁prejema 999
▁stu 999
▁elemente 999
▁soo 999
▁zasledi 999
▁površin 999
▁napad 999
▁uporabnika 999
dka 999
▁ww 999
▁čudovi 999
▁povedali 999
▁Analiza 999
▁povsod 999
▁nik 999
▁hidro 999
▁regije 999
▁hvala 999
▁omenjeni 999
jn 999
▁Nove 999
▁mogla 999
▁informi 999
▁propa 999
▁(6 999
▁znesek 999
▁roku 999
▁finančnega 999
▁ble 999
▁zaupanja 999
žite 999
▁zapisal 999
▁Matja 999
▁podoben 999
▁magistr 999
nen 999
▁libe 999
▁robo 999
________ 999
▁uporabiti 999
▁glasov 999
▁akcije 999
▁). 999
▁Primerja 999
publika 999
▁izračun 999
▁številke 999
▁lokalni 999
US 999
▁organizacijske 999
timo 999
▁Tek 999
▁www 999
▁2011, 999
STO 999
▁enim 999
os 999
▁izbire 999
▁kupci 999
žnem 999
EC 999
▁zadevo 999
▁enota 999
letne 999
▁predvideva 999
▁Kova 999
▁uporabimo 999
▁5: 999
▁funkcij 999
Ve 999
▁trži 999
▁otroku 999
▁vozilo 999
▁Oči 999
▁Sobo 999
gnila 999
▁vzorca 999
▁13, 999
▁nastanek 999
vrop 999
tip 999
▁odstavka 999
▁reševanja 999
▁zagotavljajo 999
▁stoletju 999
▁glavna 999
žjem 999
▁har 999
▁gradiva 999
hka 999
▁pojav 999
▁znana 999
▁literature 999
▁’ 999
▁žup 999
pati 999
▁donos 999
▁Kla 999
ZI 999
šega 999
▁izbor 999
▁Merca 999
ritev 999
▁funkcija 999
▁skupnih 999
▁sistemom 999
▁robu 999
▁glavno 999
av 999
▁pomagati 999
▁evropsko 999
▁uporabnikom 999
Ja 999
▁zamisli 999
▁kongre 999
▁Duna 999
Si 999
tes 999
▁poža 999
Le 999
▁are 999
▁kolega 999
▁rit 999
▁iger 999
▁naročila 999
▁prireditve 999
žitve 999
▁uradni 999
ANJA 999
▁predlagal 999
▁mir 999
▁ekipi 999
kovič 999
nso 999
▁vro 999
ceni 999
39 999
▁spretnosti 999
mur 999
▁nakupu 999
▁sodijo 999
▁negativno 999
▁vrednot 999
▁situacije 999
▁dolžnosti 999
▁ugoto 999
▁potek 999
▁sana 999
▁davka 999
▁skladno 999
▁vezi 999
žal 999
žbi 999
▁visoki 999
▁ameriških 999
dnu 999
hodek 999
LB 999
▁zviša 999
▁seje 999
▁osnova 999
tenje 999
▁kršča 999
▁spletu 999
▁odpravlja 999
▁spadajo 999
▁nepremičnin 999
▁koz 999
▁nabi 999
▁razpolo 999
▁uveljavi 999
▁tedno 999
76 999
▁pozitivne 999
▁smučar 999
▁turizma 999
▁nacionalne 999
kteri 999
▁omrežje 999
▁najlep 999
GI 999
tska 999
▁dogodka 999
▁načinov 999
▁raste 999
▁dajejo 999
▁rečem 999
▁prevzem 999
rjenih 999
▁Pozna 999
▁zmožnosti 999
liji 999
88 999
▁Elek 999
stvih 999
▁intelektu 999
▁šolah 999
34 999
▁ekonomsko 999
▁ano 999
▁odlaga 999
0,00 999
▁Sre 999
▁postopke 999
▁medijih 999
▁pesem 999
▁rekre 999
▁transport 999
▁Ap 999
▁podne 999
▁otroki 999
▁telesne 999
▁Šo 999
▁sredstvi 999
▁nacionalni 999
▁povezan 999
ravnote 999
▁zunanjih 999
▁avtorji 999
▁lesa 999
▁poslovanju 999
▁videz 999
▁priro 999
▁Bese 999
▁oboro 999
▁srečanja 999
▁zemljišča 999
▁določenega 999
▁razve 999
▁ostalimi 999
▁asi 999
LJE 999
500 999
▁viru 999
tovanje 999
nij 999
▁Koliko 999
▁učinke 999
▁imele 999
▁kultura 999
▁identifika 999
LS 999
▁drago 999
29 999
▁pomenu 999
▁delal 999
▁Triglav 999
▁institucij 999
▁volje 999
krimina 999
▁nekem 999
▁srce 999
▁celoten 999
▁ilu 999
ogra 999
▁prihodnjih 999
▁zdravstvenega 999
▁polje 999
▁sekretar 999
▁praksa 999
▁obrambo 999
▁generacije 999
▁naredila 999
▁izgubi 999
▁moto 999
▁edino 999
▁podjetji 999
▁usposabljanja 999
▁44 999
▁Micro 999
▁predloge 999
▁splošne 999
▁Vedno 999
▁ponudba 999
▁pripom 999
▁žensko 999
▁pošlje 999
▁konferenci 999
čij 999
▁dokončno 999
▁skrivnost 999
'' 999
▁> 999
ljih 999
▁Bog 999
▁noge 999
▁odpor 999
▁medsebojno 999
▁Ravno 999
koni 999
▁dolgi 999
▁ustvarjanje 999
lic 999
▁korek 999
▁nepotre 999
▁takti 999
pno 999
▁banki 999
▁nezadovolj 999
▁zatr 999
▁neverje 999
▁PE 999
▁zadovoljstva 999
▁certi 999
▁osvet 999
▁zaposlenimi 999
▁MI 999
▁TA 999
▁gale 999
▁nate 999
▁prispevek 999
din 999
▁benci 999
▁teni 999
▁zape 999
▁meji 999
▁restavra 999
šeno 999
vel 999
ktivno 999
▁nepremičnine 999
▁nanj 999
Bo 999
čal 999
▁Vsaka 999
▁regiji 999
▁prevzema 999
▁nekdanje 999
▁projekte 999
▁raznih 999
▁deležni 999
▁zavedajo 999
▁perspekti 999
cke 999
▁min 999
▁Mogoče 999
▁znak 999
▁enač 999
ncem 999
▁Uče 999
▁rečemo 999
šnik 999
▁hoteli 999
▁vle 999
▁Veliki 999
▁Prvo 999
▁zapisali 999
▁naslednjem 999
▁14, 999
snim 999
▁časovno 999
cho 999
▁določiti 999
BO 999
▁ameriške 999
▁filmu 999
▁znani 999
▁rabi 999
▁nesreče 999
▁napredek 999
▁1997 999
▁idej 999
SP 999
▁prostore 999
▁test 999
▁pobudo 999
86 999
polnje 999
vnice 999
▁Ple 999
▁vire 999
▁bruto 999
stnikov 999
nikom 999
▁kratkem 999
bljeno 999
▁humani 999
NOSTI 999
▁grož 999
▁pridobivanje 999
▁Petro 999
▁masa 999
▁govora 999
▁procese 999
;. 999
▁okolici 999
▁Zanimivo 999
nstva 999
ala 999
▁drugič 999
▁direkti 999
▁nasprotno 999
▁Avstra 999
▁celotni 999
acije 999
▁odv 999
▁avtomobilov 999
▁morale 999
▁Dele 999
▁potekal 999
▁lestvici 999
▁odgovore 999
▁terjatev 999
▁kožo 999
▁izobrazbo 999
▁Glo 999
NEGA 999
▁odstavek 999
▁znajo 999
▁začetkom 999
▁Avto 999
hal 999
▁inteligen 999
▁udar 999
▁Tega 999
▁pomenilo 999
MC 999
▁1995 999
trih 999
▁poklica 999
▁Spošto 999
▁Franc 999
SKE 999
▁veseli 999
▁globoko 999
▁tekmah 999
▁Vu 999
▁Rad 999
▁1996 999
▁potekajo 999
lm 999
cijskem 999
▁sreče 999
▁potrebnih 999
▁tovo 999
▁pas 999
torica 999
▁modelov 999
▁port 999
▁spek 999
▁razpi 999
▁15, 999
▁omenjeno 999
▁kandidatov 999
rsko 999
rednost 999
▁posredu 999
tji 999
▁posega 999
▁epi 999
▁pok 999
ph 999
▁dovoljenje 999
▁zdravljenja 999
med 999
čevi 999
jstvo 999
▁uvršča 999
▁sv 999
▁njenem 999
▁Nemčija 999
zdravi 999
▁srca 999
▁Informa 999
▁Predlaga 999
kratni 999
▁spol 999
▁kapaci 999
▁mehaniz 999
▁1999, 999
▁zasli 999
▁zaznamo 999
lly 999
▁Smo 999
▁odziv 999
▁univerza 999
▁'' 999
▁tabo 999
tic 999
▁ambi 999
▁fizično 999
▁7: 999
moni 999
▁Pav 999
▁večjega 999
▁mali 999
▁pohi 999
stal 999
dam 999
▁vožnjo 999
▁celice 999
▁pričakovati 999
▁prepričani 999
čkom 999
▁rahlo 999
tino 999
dnosti 999
▁prevaja 999
▁legi 999
boratori 999
njska 999
▁prodaji 999
▁vsto 999
vnica 999
▁kopa 999
▁uspeha 999
▁noga 999
poma 999
▁nadaljevanje 999
▁nadzoro 999
svet 999
▁temati 999
▁Com 999
▁Želi 999
▁iskanju 999
▁priporo 999
▁osebnosti 999
land 999
▁Zapos 999
▁vključujejo 999
amp 999
pila 999
▁igrali 999
▁Savi 999
▁želite 999
▁uvedbo 999
▁zanjo 999
žko 999
Ni 999
gona 999
▁1998, 999
▁telesno 999
▁Primo 999
▁man 999
▁preventi 999
▁ureditve 999
▁120 999
▁oblikovanja 999
▁Slovencev 999
▁geograf 999
▁predvaja 999
▁primerne 999
▁občasno 999
▁‘ 999
▁pobo 999
▁podrobneje 999
prosti 999
▁vaje 999
▁človekove 999
▁1.1 999
▁Sin 999
siji 999
▁sega 999
▁Wa 999
▁spremljanje 999
▁glasu 999
▁hladi 999
toro 999
▁spomeni 999
▁znameni 999
▁kos 999
▁mama 999
▁Primor 999
▁izvedbi 999
▁zakonodaj 999
ted 999
▁Verjetno 999
stina 999
šal 999
rizo 999
▁opravila 999
tet 999
▁spla 999
▁dolgoročno 999
▁orien 999
▁US 999
▁roki 999
▁češ 999
▁radio 999
▁prihodki 999
▁iščejo 999
▁kosi 999
ženega 999
wo 999
strez 999
skon 999
kajo 999
▁minutah 999
▁pogojih 999
▁Posla 999
▁razpis 999
▁bro 999
▁začu 999
▁sprva 999
▁emisi 999
▁letoma 999
▁pravočasno 999
77 999
▁delali 999
▁vodstva 999
▁notranjih 999
▁Bran 999
▁gradivo 999
▁branje 999
▁pomagali 999
▁obstoječe 999
▁prisotnost 999
▁ustrezni 999
žan 999
▁govorijo 999
!! 999
▁obstoječih 999
▁potrdil 999
▁Raču 999
▁pričakujemo 999
▁obračuna 999
▁nedvomno 999
žka 999
▁Luka 999
▁dolžni 999
▁razprave 999
poli 999
komunika 999
▁prizori 999
▁konkurence 999
94 999
▁komuniciranje 999
0,0 999
▁aktivi 999
▁služb 999
▁osnovna 999
▁izrazito 999
čevati 999
▁lastnost 999
▁potrošnikov 999
▁sola 999
▁slabih 999
▁registra 999
▁Men 999
▁Zla 999
▁Šved 999
▁industrije 999
produ 999
mpiri 999
▁domačem 999
▁takšni 999
▁zrak 999
▁doži 999
▁noči 999
▁športno 999
mskih 999
hing 999
▁menedže 999
ziran 999
▁žena 999
▁kršitev 999
▁moraš 999
▁tednu 999
▁kamni 999
▁postalo 999
▁inženi 999
▁Državni 999
ševanju 999
▁rado 999
▁financiranje 999
▁fleksi 999
▁napravi 999
cka 999
šali 999
čaja 999
▁pripelje 999
▁premoženje 999
▁vaši 999
▁omenjene 999
▁izstopa 999
▁ogroža 999
jana 999
kot 999
▁vožnje 999
▁Tisti 999
▁prevzel 999
▁Sistem 999
▁mrežo 999
▁glasovanje 999
▁vzajem 999
▁neto 999
▁rastlin 999
▁parlament 999
▁služi 999
▁Alek 999
1: 999
rata 999
▁Prosim 999
▁dogovor 999
▁zmanjšuje 999
▁podreje 999
kalo 999
▁skupinah 999
▁državnem 999
▁stabi 999
▁kapitali 999
▁javna 999
▁podobnih 999
▁posebnimi 999
metno 999
▁ugled 999
▁Boru 999
▁potni 999
▁ribi 999
▁učinkov 999
▁naje 999
▁uredni 999
▁začasno 999
▁polja 999
▁ugotovila 999
▁problemi 999
▁isla 999
taj 999
▁izdat 999
CO 999
▁kupu 999
▁določbe 999
▁slabosti 999
▁Zanima 999
▁delniča 999
NOST 999
▁člane 999
▁telefon 999
▁bančni 999
▁Kana 999
intere 999
▁meritev 999
▁poglo 999
yer 999
▁pojavijo 999
skemu 999
▁Komu 999
▁komunikacijo 999
▁zakonov 999
rhi 999
▁tehnologija 999
▁povezuje 999
bite 999
mili 999
▁garan 999
ham 999
▁dobo 999
▁dejala 999
▁tehnologij 999
tok 999
▁delavec 999
▁majhne 999
▁odvisnosti 999
▁pasi 999
▁debe 999
▁rev 999
▁vedeli 999
ding 999
cionalno 999
▁navodila 999
▁podlaga 999
▁pleza 999
▁podobna 999
▁taki 999
▁pokala 999
▁kulturnih 999
2: 999
▁56 999
▁avtomobila 999
▁razporedi 999
verjetneje 999
▁prepu 999
meter 999
▁Sodi 999
▁verjetnost 999
RAV 999
▁oglji 999
▁Klju 999
▁olja 999
▁soraz 999
Slika 999
▁tran 999
▁povem 999
▁govorili 999
▁boju 999
▁obema 999
▁izpol 999
valce 999
▁napetost 999
▁mlajši 999
▁civili 999
▁pohvali 999
ye 999
čala 999
▁celic 999
▁modelu 999
▁Jugoslavije 999
▁čustva 999
▁žalost 999
▁pomanjkljivosti 999
▁gredo 999
▁tamkaj 999
dali 999
▁kroga 999
TEV 999
▁Nek 999
▁letošnji 999
▁Vlade 999
▁primanjklja 999
▁veči 999
▁davčni 999
vka 999
▁izid 999
▁določili 999
▁potrebami 999
▁pole 999
▁predhodno 999
Se 999
▁nasve 999
▁izziv 999
▁razlogi 999
▁pripravljena 999
▁končala 999
▁sporazuma 999
▁predpisi 999
▁letošnjem 999
▁situacijo 999
▁kontroli 999
▁avtorjev 999
▁OŠ 999
nina 999
▁ugotovil 999
unda 999
▁glavi 999
▁rastline 999
▁davčnih 999
▁trgovini 999
▁sporazum 999
▁izdajo 999
▁miro 999
▁izgubili 999
▁napovedi 999
▁usposabljanje 999
vnika 999
hte 999
▁odšte 999
▁faza 999
▁pogosteje 999
ght 999
▁tehnično 999
vere 999
▁sporoča 999
▁partnerja 999
▁Podatki 999
▁podpora 999
▁zadnjega 999
čnemu 999
0) 999
kula 999
▁odvisen 999
lnikom 999
▁osebi 999
▁novimi 999
▁Loka 999
▁post 999
▁Microso 999
▁kap 999
tter 999
▁posredno 999
elek 999
▁gasi 999
ab 999
vniki 999
▁obsegu 999
▁istega 999
▁Podro 999
▁družbeni 999
▁kovi 999
▁postanejo 999
lon 999
▁nadzoru 999
▁mer 999
▁slik 999
▁vodila 999
ps 999
▁sejo 999
ženju 999
▁razse 999
▁16, 999
▁faze 999
▁nemški 999
▁zaposlovanje 999
▁OP 999
štru 999
▁hče 999
▁barvo 999
▁razpisa 999
▁območjih 999
▁predmetov 999
▁obvešče 999
▁2009). 999
▁zavezni 999
▁100,0 999
Da 999
▁slaba 999
▁nag 999
▁At 999
▁filozofi 999
–2 999
▁van 999
▁majhen 999
▁partnerji 999
terja 999
▁pomagal 999
▁uspešen 999
ina 999
▁dvig 999
93 999
▁voz 999
▁dojema 999
vcev 999
tujejo 999
▁študije 999
▁potrebni 999
08 999
▁Nu 999
▁zmeraj 999
jnik 999
▁primera 999
▁jima 999
▁Dole 999
dovali 999
močne 999
ščem 999
▁jam 999
66 999
tinu 999
▁potrdila 999
▁odgovora 999
▁predhodni 999
▁terori 999
čnika 999
▁Pahor 999
▁pristopi 999
▁poslab 999
▁marsika 999
▁kategorije 999
▁gum 999
cy 999
▁mater 999
nolo 999
au 999
šejo 999
▁NLB 999
▁dogajanja 999
▁kriza 999
▁besedami 999
▁nagraje 999
▁spleta 999
▁postaje 999
▁gasil 999
▁naravne 999
▁porabo 999
Do 999
▁nakupo 999
▁časopi 999
▁najboljša 999
▁tveganj 999
▁povzročajo 999
dah 999
paren 999
▁parlamentu 999
▁mednarodnega 999
▁vzdu 999
▁%), 999
pošte 999
stimi 999
▁Prija 999
▁subjek 999
čah 999
▁nekoga 999
▁Posto 999
▁koncert 999
▁sanja 999
▁Žele 999
▁kože 999
▁analiti 999
▁NI 999
▁Ange 999
▁zali 999
▁pripraviti 999
▁polfina 999
▁prinese 999
▁Avstriji 999
▁podrobnosti 999
dju 999
▁spregovo 999
pan 999
▁plošče 999
▁najvišje 999
▁valo 999
▁Letos 999
▁ciljem 999
▁kmetijskih 999
ploh 999
▁600 999
▁lese 999
pež 999
▁CE 999
▁magne 999
▁marsikaj 999
mpati 999
kam 999
zila 999
▁lokalno 999
▁hude 999
▁priznanje 999
▁preteklih 999
▁kle 999
▁vlog 999
dis 999
▁volitev 999
▁potrdili 999
▁sekundar 999
dnjih 999
▁ugotovimo 999
▁predstavo 999
financi 999
interesi 999
terji 999
▁katastro 999
▁prevoz 999
▁privati 999
▁polj 999
▁bakteri 999
▁majhna 999
liki 999
▁pun 999
▁4.3 999
▁kulturni 999
▁nemogoče 999
▁predstaviti 999
primer 999
liča 999
▁dejavnike 999
▁agresi 999
▁Pogosto 999
▁eksplo 999
▁polča 999
▁žrtve 999
▁Celju 999
▁neprije 999
▁zanika 999
▁posebna 999
▁pripravila 999
bnik 999
▁davek 999
▁peš 999
▁dediščine 999
▁njemu 999
▁indeks 999
▁košarkar 999
matsko 999
▁tekmovanje 999
▁modro 999
▁najpomembnejši 999
▁Tokrat 999
▁naložb 999
muli 999
▁programom 999
▁samopo 999
▁zbu 999
▁odločbe 999
▁naročil 999
▁prostem 999
▁izgublja 999
▁(198 999
▁alkohola 999
▁Skratka 999
▁trebu 999
▁diplomskega 999
rab 999
pela 999
▁izhajajo 999
▁izobraževanju 999
!« 999
▁interese 999
vanega 999
▁osvojil 999
▁Medi 999
▁razvojem 999
▁prispeva 999
▁Nič 999
▁niko 999
▁začnejo 999
▁odpoveda 999
▁povezava 999
▁Chi 999
▁izgubo 999
▁spremembah 999
▁novosti 999
▁optima 999
▁kreati 999
▁Šta 999
▁Agen 999
erarhi 999
▁podpred 999
▁zdravstveni 999
que 999
▁mizo 999
▁brezposelnosti 999
▁pobe 999
▁elektronski 999
▁5.2 999
▁zaskr 999
▁sobi 999
▁Indi 999
▁petna 999
▁vsebina 999
pisujejo 999
▁dvobo 999
▁mesece 999
▁prikri 999
▁Ira 999
▁zmage 999
▁raziskovanja 999
▁Tro 999
▁teče 999
▁prepusti 999
▁razvr 999
▁najnove 999
▁čase 999
▁zadev 999
▁ogra 999
▁prebivalci 999
▁stanovanje 999
▁niha 999
▁umrl 999
▁internet 999
▁politik 999
▁pogodb 999
▁Stru 999
starej 999
▁gri 999
▁malih 999
▁izbranih 999
▁Škof 999
▁skrom 999
▁časih 999
▁devi 999
▁primere 999
-3 999
▁Dejstvo 999
▁boljšo 999
▁Sy 999
telju 999
▁ske 999
▁nasprotni 999
▁vprašanju 999
▁skrajša 999
▁osamos 999
▁obvezno 999
▁izbri 999
▁drugačno 999
valu 999
▁Nekatere 999
▁izu 999
▁Pripo 999
▁zanimiv 999
tur 999
stike 999
▁zanimiva 999
▁morate 999
vile 999
▁Člove 999
šitev 999
▁Grči 999
▁izpusti 999
▁močan 999
zirati 999
▁drugje 999
▁poglavje 999
tskega 999
▁Viso 999
▁poje 999
▁domovi 999
▁storiti 999
▁opredelitev 999
▁zapu 999
▁povelj 999
▁Ša 999
▁Uspe 999
nović 999
▁farma 999
▁zunanjega 999
▁zaposlovanja 999
lski 999
▁vne 999
vilo 999
▁Anke 999
▁Wal 999
▁črpa 999
▁obravnavi 999
▁največjo 999
▁Zi 999
▁Šu 999
jnem 999
▁ton 999
▁odgovoril 999
▁iste 999
oz 999
▁primerjavo 999
▁glave 999
▁možnih 999
▁predstave 999
▁2010). 999
▁tabele 999
▁kombini 999
▁2012, 999
▁lastnega 999
▁kategoriji 999
▁mero 999
▁začetni 999
▁finančna 999
▁merjenje 999
▁1990 999
▁pojma 999
▁razpr 999
▁poudarek 999
dalj 999
▁odvija 999
▁cerke 999
▁prijetno 999
▁turizem 999
ela 999
▁karakteri 999
▁napako 999
ndo 999
▁širši 999
▁celj 999
teno 999
▁posamezno 999
▁cesto 999
stičnega 999
▁morju 999
bljen 999
▁narodov 999
▁glu 999
▁obratno 999
plet 999
šena 999
▁šolstvo 999
kan 999
▁dokaz 999
▁veseljem 999
▁komunikacija 999
▁športa 999
▁Knji 999
▁— 999
▁cerkev 999
▁srednji 999
▁Goo 999
▁svobode 999
bine 999
▁smisel 999
▁začele 999
▁naravno 999
▁osve 999
▁avtori 999
▁napovedal 999
▁sed 999
▁visokih 999
▁določitev 999
lko 999
▁2,5 999
▁znamko 999
▁Trenutno 999
▁spopa 999
▁strahu 999
▁Sveta 999
▁laboratori 999
nev 999
▁reševanju 999
▁Robert 999
▁goriva 999
▁morebitne 999
▁spodnji 999
▁teorija 999
▁pomenijo 999
ANI 999
▁kmetijstvo 999
07 999
▁pomeri 999
87 999
▁revije 999
▁Facebo 999
▁upravo 999
.), 999
▁metodi 999
▁identitete 999
dami 999
▁jugoslova 999
▁infrastrukturo 999
▁mirno 999
▁profeso 999
▁značilna 999
▁zasto 999
▁moža 999
▁pravna 999
91 999
▁državljani 999
▁smejo 999
▁sisteme 999
zin 999
▁pesni 999
▁političnega 999
▁letošnjega 999
▁informacijske 999
/201 999
▁Mal 999
▁sodobne 999
,... 999
▁varovanje 999
▁Strokov 999
ht 999
▁visok 999
rio 999
▁implementa 999
▁značilnost 999
▁cu 999
▁spremenila 999
▁sena 999
▁znašala 999
▁povprečna 999
▁prvakov 999
mana 999
▁2008). 999
▁ustreznih 999
▁nepro 999
▁ulici 999
03 999
▁ideja 999
▁2007). 999
▁neob 999
▁Hor 999
▁nema 999
danja 999
▁izvrš 999
▁Evropo 999
▁japo 999
▁potrebovali 999
▁predpisov 999
▁družbenega 999
Me 999
▁ključne 999
▁razmeroma 999
▁plošča 999
▁EP 999
▁kupca 999
▁LA 999
▁Njegova 999
▁najvišji 999
▁OZ 999
▁kari 999
▁vzpostavlja 999
▁virtu 999
▁ote 999
▁osebnega 999
FI 999
voz 999
▁95 999
▁Drugo 999
▁prenosa 999
▁navadi 999
▁Mila 999
▁posred 999
▁prilo 999
sal 999
▁2016 999
:1 999
▁oddaje 999
▁] 999
▁vplete 999
▁Pol 999
▁toka 999
▁vidik 999
sch 999
nitve 999
▁dalo 999
▁Franciji 999
▁veš 999
▁uravnote 999
.15 999
▁nekdaj 999
▁preprečevanje 999
▁Čas 999
▁zaj 999
▁nale 999
nskemu 999
čujem 999
▁opisuje 999
▁DZ 999
▁niste 999
rel 999
siti 999
▁upoštevajo 999
▁bere 999
▁življenjsko 999
▁bolečine 999
▁Uči 999
ljenja 999
kin 999
ide 999
pt 999
tugal 999
▁kakovostno 999
stava 999
▁noče 999
cti 999
▁delavca 999
pleta 999
▁tržne 999
▁· 999
▁zastop 999
▁Br 999
▁obravnave 999
▁številom 999
▁terenu 999
▁Problem 999
▁dono 999
▁Slova 999
▁poslal 999
▁ukrep 999
▁uvod 999
▁57 999
▁zemelj 999
▁strežni 999
▁goji 999
KT 999
▁kanali 999
▁dohodni 999
▁potekalo 999
ziranje 999
▁obole 999
▁Posame 999
▁znanih 999
▁Vsako 999
▁rele 999
▁Teža 999
▁Strate 999
šeni 999
▁Manj 999
▁odločajo 999
njajo 999
▁spraše 999
▁bolnikov 999
▁20, 999
▁oddelka 999
▁51 999
RT 999
▁vrho 999
▁sestra 999
Sa 999
▁zdelo 999
▁kratek 999
▁središču 999
▁elektronsko 999
▁diskrimina 999
▁Poja 999
▁prispevkov 999
▁žrt 999
▁iskre 999
dini 999
▁Nam 999
▁povezav 999
▁nobena 999
▁enoto 999
▁izdelave 999
▁reprezentance 999
▁učence 999
▁prisotna 999
▁52 999
▁zdravo 999
▁standard 999
▁Gospodar 999
mese 999
▁razne 999
▁kontak 999
▁kontra 999
▁spremenil 999
▁raztopi 999
▁49 999
▁tekem 999
▁Qu 999
▁klini 999
▁motnje 999
▁ohranjanje 999
vir 999
▁PRED 999
▁nasilje 999
▁težo 999
▁križa 999
▁tretjega 999
▁pripadajo 999
pin 999
▁spreminjajo 999
▁gospodarstvu 999
toni 999
▁vsemu 999
▁pravoso 999
▁empiri 999
▁vzpostavitev 999
▁prvaka 999
▁Vol 999
snimi 999
▁igralca 999
vest 999
▁naveza 999
▁Opa 999
fal 999
čali 999
▁štirje 999
Te 999
▁velikim 999
▁drugačne 999
04 999
▁trikrat 999
▁oblikuje 999
vski 999
▁fu 999
▁Vprašanje 999
šenje 999
▁domačega 999
▁tržno 999
nel 999
wer 999
mljo 999
▁povezanost 999
▁± 999
▁Kan 999
▁prez 999
▁filmov 999
No 999
▁raziskava 999
▁250 999
▁monta 999
▁enaki 999
▁VO 999
▁tranzi 999
▁zavedati 999
▁razvojne 999
▁oglaševanje 999
rca 999
▁očeta 999
▁sodelovati 999
▁odnosih 999
škemu 999
▁Kro 999
▁Boga 999
▁potrebi 999
▁najverjetneje 999
▁porabi 999
▁stresa 999
▁negotovo 999
▁certifika 999
▁stranko 999
tz 999
▁Hrvaška 999
▁μ 999
▁obveznost 999
▁spodbujanje 999
berg 999
▁osi 999
▁odprli 999
▁Bistri 999
▁2011). 999
▁njegovim 999
▁Glas 999
vite 999
▁mleka 999
▁Ukraji 999
jšega 999
▁Doma 999
▁dodali 999
ther 999
▁85 999
▁zapisano 999
▁krizo 999
▁obiskovalcev 999
▁gradbeni 999
▁Opre 999
▁ocenjevanje 999
▁prosti 999
kost 999
▁zakonsko 999
▁rešiti 999
▁Fre 999
▁deloma 999
▁festival 999
▁vtis 999
▁obdrža 999
▁gospodarska 999
▁odprto 999
▁Doda 999
▁pogodbi 999
▁Evropsko 999
▁orožja 999
▁boja 999
▁žogo 999
▁nebo 999
▁Hrvaškem 999
▁goste 999
▁mnoge 999
▁belo 999
▁inštru 999
▁rdeče 999
▁svojemu 999
▁tiho 999
▁vpelja 999
▁organa 999
64 999
cs 999
▁segre 999
▁poleti 999
▁Inš 999
▁pridobil 999
▁(7 999
▁osnove 999
▁namerava 999
▁Delež 999
▁poceni 999
kto 999
▁zadevi 999
▁cel 999
▁razumem 999
▁ravnote 999
lia 999
njskih 999
čana 999
čimi 999
▁duši 999
▁58 999
▁standardov 999
▁Kam 999
▁Rde 999
▁akcijo 999
▁El 999
▁Upam 999
▁Šte 999
▁druža 999
Pre 999
jenja 999
torju 999
shi 999
▁nesreč 999
▁neforma 999
▁ženski 999
▁umo 999
▁2006). 999
akti 999
▁trgovino 999
▁18, 999
▁1991 999
▁Ben 999
▁kontrolo 999
hat 999
▁površino 999
▁poudariti 999
▁tehnične 999
▁središče 999
▁uspeli 999
▁Wor 999
▁kilogra 999
sedno 999
jci 999
▁razpolaga 999
▁starejše 999
▁depre 999
▁republike 999
▁vzpodbu 999
▁Državnega 999
▁dnevu 999
▁Pouda 999
▁tovrstnih 999
čati 999
▁brska 999
zovanje 999
▁dokumentacije 999
▁Jezu 999
▁strategija 999
▁zaposlitvi 999
▁boljša 999
čite 999
▁varstvu 999
strukturi 999
▁pojasnila 999
▁sestavljen 999
▁poe 999
▁sposobni 999
▁vključeni 999
▁obrato 999
▁Seve 999
▁okoliščine 999
02 999
▁znaj 999
▁identifici 999
▁hoke 999
▁najpomembnejše 999
▁mase 999
čevali 999
novr 999
▁hru 999
▁žalo 999
ščenja 999
▁dekla 999
▁razmerju 999
▁določajo 999
▁pogajanja 999
▁srečanju 999
▁enakov 999
▁transak 999
peti 999
▁imenujemo 999
▁rezi 999
▁prejšnjih 999
▁predlogov 999
▁sponzor 999
▁lege 999
▁hierarhi 999
▁gno 999
▁vplivom 999
ning 999
▁presenet 999
▁prinesel 999
▁tistimi 999
bec 999
▁meh 999
lizacije 999
▁prakso 999
▁manipu 999
▁svetovnih 999
vic 999
kol 999
▁moškega 999
njskem 999
▁Gregor 999
▁višina 999
▁Priča 999
▁skriva 999
▁izjemo 999
▁Direk 999
tik 999
▁Stop 999
▁olje 999
▁prometne 999
čevo 999
▁dokumenti 999
▁Ang 999
▁kakšnih 999
▁noben 999
▁uka 999
▁tki 999
HO 999
▁Sama 999
▁pomla 999
▁podobe 999
▁katoli 999
▁sredini 999
▁Del 999
▁sekund 999
▁Cena 999
▁navi 999
▁človeku 999
▁pomembnosti 999
▁merila 999
▁pritisk 999
▁postaviti 999
▁prometnih 999
▁vita 999
GE 999
▁finalu 999
▁194 999
▁lega 999
▁politična 999
▁rekoč 999
ret 999
▁sklop 999
▁cvet 999
▁dviga 999
▁ocenjuje 999
▁turistične 999
▁IT 999
▁indek 999
jeva 999
▁spremenljivke 999
▁Fu 999
▁pregledni 999
▁pristopa 999
▁postopoma 999
▁Bol 999
▁odku 999
▁izvajati 999
▁zda 999
▁vojna 999
▁regula 999
▁prostega 999
▁predlogi 999
▁skorajda 999
▁tede 999
▁pritožbe 999
▁Zavaro 999
▁storil 999
trje 999
▁znanost 999
▁poskušali 999
dows 999
▁ustavno 999
▁snov 999
▁gremo 999
jak 999
▁1.2 999
▁uspel 999
▁0,8 999
▁zate 999
▁ova 999
ekonom 999
▁predstavnikov 999
lesti 999
▁gostov 999
▁Alen 999
▁sodeloval 999
▁KI 999
▁arma 999
▁zavod 999
▁Makedo 999
▁evropskem 999
▁algori 999
▁dogodki 999
▁sedmih 999
▁dopolnje 999
▁izgubila 999
▁trend 999
▁temperatura 999
▁uma 999
▁pojasnjuje 999
▁preživlja 999
▁Konec 999
▁odločbo 999
▁uspešna 999
▁skli 999
▁dogodke 999
▁17, 999
▁razvijajo 999
klop 999
▁postopkih 999
▁drugačna 999
▁plju 999
▁Petra 999
▁managementa 999
gradnja 999
▁kategorija 999
nesli 999
▁Mednaro 999
▁ustvari 999
▁preverjanje 999
▁zaposlenim 999
▁čedalje 999
▁64 999
šina 999
▁Am 999
▁priprava 999
▁verjamem 999
▁zlato 999
▁sili 999
▁materiali 999
▁ref 999
▁zapro 999
▁raka 999
▁nadaljeval 999
▁proizvodnja 999
▁kas 999
▁povpraševanje 999
▁morje 999
lnike 999
▁Milan 999
▁napačno 999
▁zatem 999
šlo 999
▁poročil 999
▁izkazalo 999
▁este 999
▁živil 999
▁centi 999
▁industriji 999
La 999
▁Združenih 999
BM 999
▁razvrsti 999
šili 999
▁življenjskih 999
▁tečaj 999
▁prebere 999
▁idejo 999
▁nadreje 999
tenja 999
mah 999
▁Janša 999
▁informacijo 999
▁obresti 999
▁nacionalnih 999
▁| 999
▁igrajo 999
▁izpostavlja 999
▁iskati 999
▁Evropa 999
▁znanj 999
▁zbiranje 999
▁komentira 999
nstve 999
kolo 999
▁risa 999
mis 999
▁Jure 999
▁Uporaba 999
mpto 999
▁zunanjo 999
▁Amerike 999
▁križi 999
▁oblačno 999
▁kontrole 999
▁obravnavali 999
nkov 999
▁znamk 999
▁relati 999
▁strošek 999
jujejo 999
▁odraslih 999
▁dohodka 999
▁škoda 999
bljene 999
▁pritr 999
▁povečal 999
▁četudi 999
3: 999
▁varovanja 999
▁kontekstu 999
▁giblje 999
▁naslednja 999
▁tovor 999
▁tvoje 999
▁kape 999
▁neena 999
▁oglaševanja 999
rina 999
▁odgovoren 999
bljena 999
▁potencial 999
▁Han 999
▁LDS 999
▁pregledu 999
▁razpolago 999
▁primeri 999
cionalni 999
slove 999
▁Ured 999
▁lastnikov 999
▁imu 999
▁NO 999
▁česa 999
▁sinte 999
▁Malo 999
', 999
▁TU 999
▁ureje 999
▁podal 999
ralo 999
▁Meni 999
▁podi 999
▁ovire 999
RM 999
▁zadru 999
zako 999
▁oddelek 999
▁vrne 999
pru 999
▁zdravnik 999
vici 999
▁glasba 999
▁svetlobe 999
▁serije 999
▁ključni 999
▁prijateljev 999
▁Milo 999
▁obletni 999
▁pomanjkanja 999
▁Očitno 999
▁zdr 999
▁Vladi 999
pendi 999
▁brezplačno 999
▁nastal 999
▁zadnjo 999
▁deba 999
▁Celja 999
▁našim 999
▁članica 999
▁preiskoval 999
evrop 999
▁SKUP 999
▁skladov 999
stavil 999
▁pokazale 999
▁temelje 999
▁pogovoru 999
▁lepi 999
▁%). 999
▁POD 999
▁Ptuj 999
▁jemlje 999
▁ZN 999
▁sedež 999
▁mojega 999
▁spodaj 999
▁opazili 999
▁ljubljanski 999
CIJA 999
▁Preše 999
▁negativne 999
▁dvajset 999
▁prinesla 999
▁barv 999
dko 999
▁anketiranci 999
▁razumevanja 999
▁teroristi 999
62 999
▁vez 999
▁800 999
▁govor 999
▁inici 999
king 999
▁nezakoni 999
▁hor 999
▁Statisti 999
▁dovo 999
▁Šele 999
▁As 999
▁težavami 999
▁neposredni 999
▁okolice 999
▁avtomati 999
čile 999
vzeto 999
▁lastnika 999
zirane 999
▁nevla 999
▁odgovorni 999
▁54 999
▁razvojnih 999
nti 999
gnali 999
bal 999
▁-0, 999
▁zavra 999
stano 999
▁Tomaž 999
▁posel 999
▁tehnika 999
▁proizvodnji 999
xi 999
▁Nata 999
▁-- 999
nsa 999
▁oblačila 999
▁postavitev 999
▁zainteresi 999
▁Občina 999
▁Organiza 999
▁datum 999
wn 999
▁IP 999
▁elektronske 999
škodo 999
▁dodatna 999
▁prehaja 999
ria 999
▁zvezo 999
▁mestni 999
▁zanimanje 999
čenju 999
▁manjšo 999
▁zapis 999
▁nepravilnosti 999
▁doseg 999
▁preobra 999
▁prepi 999
▁najpomembnejših 999
▁klubu 999
knji 999
▁feno 999
▁padla 999
▁dodamo 999
zmom 999
izobra 999
▁rja 999
▁domiš 999
▁uporabnike 999
▁sveže 999
ziranih 999
ys 999
▁izčr 999
▁Namesto 999
grafije 999
▁fir 999
▁pozdravi 999
▁opozarjajo 999
▁vsebinsko 999
▁maščo 999
▁matri 999
▁podlago 999
rim 999
▁Vpli 999
▁skupna 999
tova 999
63 999
▁načrtovanja 999
▁Kakor 999
▁Učenci 999
▁tol 999
▁2013, 999
▁močna 999
▁sposoben 999
rniki 999
▁Len 999
▁poškodb 999
▁davčno 999
▁dijaki 999
▁pritiska 999
kratno 999
near 999
▁zasebni 999
TP 999
▁delovati 999
▁navzo 999
▁barva 999
▁podrobno 999
▁Gar 999
▁sestavljena 999
▁Janeza 999
▁pomagala 999
▁območij 999
▁Primerjava 999
▁poznavanje 999
by 999
▁nastale 999
▁dekleta 999
▁vojaške 999
▁minist 999
▁naroča 999
ML 999
mentih 999
▁sor 999
▁kaznivih 999
stvarja 999
▁povpraševanja 999
▁motorja 999
▁možne 999
▁nevtra 999
▁vzel 999
▁pogledu 999
▁Model 999
▁depo 999
▁družin 999
▁strelja 999
▁JA 999
▁Gru 999
▁Skupina 999
MEN 999
▁udob 999
▁Gorica 999
▁navide 999
▁prejme 999
▁zdravni 999
▁orodij 999
▁raznovr 999
▁dolini 999
▁podobni 999
▁ameriškega 999
▁učinki 999
site 999
▁majhno 999
▁osamosvoji 999
▁dopušča 999
▁razgovo 999
▁vzdrževanja 999
▁navzdol 999
dovanju 999
▁upravičen 999
dati 999
▁bližnji 999
▁glasbene 999
wor 999
▁zbrali 999
hodnem 999
▁moder 999
▁Ugotavlja 999
▁0,7 999
valnem 999
▁skrbno 999
▁vprašanih 999
njskega 999
▁vprašal 999
▁Cu 999
▁menim 999
▁parce 999
▁spoznali 999
▁Bor 999
▁mrt 999
57 999
jame 999
▁krivu 999
▁ponoči 999
▁Republiki 999
▁padel 999
▁prihodnji 999
pravah 999
▁odprta 999
▁poudar 999
▁konkretno 999
▁večine 999
▁življenjski 999
don 999
▁Odgovor 999
▁opusti 999
▁nasproto 999
▁lase 999
▁drugemu 999
ds 999
▁moštvo 999
▁poročilu 999
žice 999
▁padec 999
▁Omenje 999
▁izjavo 999
ščenih 999
-------- 999
zek 999
▁državna 999
žga 999
▁vzgojitelji 999
▁predstavitve 999
▁pouka 999
▁najraz 999
▁Polo 999
žij 999
▁On 999
BC 999
▁izjave 999
▁prevzame 999
▁investicij 999
▁transforma 999
▁enoti 999
▁črpal 999
▁III 999
▁tor 999
cijam 999
▁predšol 999
▁dotak 999
▁Micha 999
tana 999
▁rabe 999
Tu 999
▁mizi 999
▁Barcelo 999
▁svobodo 999
▁vpogled 999
▁zaenkrat 999
▁Cha 999
vca 999
▁SLOV 999
▁Teo 999
▁teže 999
▁pismo 999
▁Simo 999
▁zažele 999
▁pravnega 999
▁pravilo 999
▁intenzivno 999
UL 999
▁Grafi 999
kod 999
▁Spe 999
mskega 999
▁kandidata 999
nuje 999
▁bivanja 999
▁opozorila 999
▁liste 999
▁odpu 999
▁konstruk 999
;, 999
▁top 999
▁knjiže 999
▁procedu 999
▁osmih 999
▁demokracije 999
vanji 999
▁rezerva 999
▁upokojen 999
▁delavce 999
▁management 999
▁Predlog 999
▁poslali 999
▁gradu 999
▁kuri 999
Li 999
▁ovredno 999
▁orke 999
vnemu 999
▁delitev 999
▁sofinanci 999
9: 999
▁povezovanje 999
ose 999
▁izbru 999
▁Razvoj 999
▁vaša 999
▁univerze 999
▁postre 999
mec 999
▁strokovnega 999
des 999
▁gne 999
▁sodelavcev 999
▁Er 999
piti 999
▁terapi 999
▁dobrodo 999
▁namenjeno 999
▁ustvariti 999
▁velepos 999
▁določila 999
▁Hrvaške 999
tela 999
▁prometni 999
▁našla 999
odstotno 999
▁varnostnih 999
▁Komisija 999
▁ukra 999
▁velikem 999
▁pripravil 999
▁sprejeta 999
mpo 999
▁živeti 999
▁bateri 999
▁itak 999
▁učne 999
šene 999
▁delavnice 999
▁razpravi 999
▁vrtcu 999
ndvaj 999
▁obar 999
▁Norve 999
▁Matjaž 999
▁transparen 999
▁videla 999
▁vinogra 999
▁nalaga 999
▁vmes 999
Vi 999
▁nasle 999
▁vojska 999
▁Skle 999
▁mednarodnem 999
▁notranjega 999
▁Duša 999
▁Obra 999
▁zgle 999
▁plu 999
▁Zadnji 999
▁temeljijo 999
▁Ed 999
▁1996, 999
▁novinarji 999
rjenju 999
▁preisko 999
nejšega 999
ritve 999
čmi 999
▁prične 999
Go 999
▁pozitiven 999
▁zaup 999
▁Kultu 999
▁zmagal 999
▁razumemo 999
▁CI 999
▁22, 999
▁gostje 999
▁Država 999
▁favori 999
▁plošči 999
▁nafte 999
▁Gle 999
njenje 999
▁znane 999
▁Francija 999
▁origina 999
ring 999
▁grem 999
▁težava 999
▁maso 999
▁plina 999
čane 999
račun 999
▁Finan 999
soma 999
▁opaža 999
▁paradi 999
▁raziskovanje 999
▁uživa 999
▁resolu 999
▁odkrili 999
▁njihovim 999
▁sedanji 999
▁situaciji 999
slab 999
▁sledila 999
▁sodobnih 999
▁HI 999
▁2012). 999
▁višjih 999
▁socialna 999
▁Standar 999
▁(8 999
vico 999
▁napoved 999
▁park 999
▁nastopil 999
ščinah 999
varna 999
▁stopni 999
▁osnovo 999
▁Laško 999
▁poraba 999
▁papir 999
▁zapora 999
jskim 999
▁loči 999
▁ključno 999
▁starega 999
▁znakov 999
▁strokovna 999
▁stene 999
▁prehrano 999
sme 999
stope 999
▁nevro 999
▁zalog 999
▁iskanja 999
09 999
▁ustvarjajo 999
▁Igor 999
▁pošteno 999
▁namenjene 999
Pe 999
šila 999
▁cestah 999
▁ekip 999
▁temeljne 999
▁zanimive 999
▁energija 999
▁arbi 999
▁združenja 999
ml 999
▁Hol 999
▁suvere 999
▁slišati 999
▁John 999
▁makro 999
▁Prepriča 999
▁programsko 999
▁sestavni 999
stran 999
▁štirimi 999
▁21, 999
▁talen 999
61 999
▁krajši 999
▁povečalo 999
▁tehničnih 999
▁varnostne 999
▁minera 999
tribu 999
▁zadevah 999
▁breme 999
▁religi 999
▁slišali 999
▁BiH 999
▁čelu 999
▁osnu 999
▁53 999
▁relevan 999
▁povečati 999
▁zahteval 999
hodnega 999
▁cevi 999
▁ekonomski 999
▁občinski 999
▁sestre 999
TC 999
letju 999
▁Andre 999
▁spoštovanje 999
racije 999
grafija 999
▁spremenili 999
▁Njegov 999
▁stiska 999
▁meritve 999
▁uše 999
▁najmočne 999
▁društev 999
▁hipotezo 999
▁glasi 999
▁nikakrš 999
▁ISO 999
▁David 999
▁regre 999
tične 999
▁dnevnega 999
▁finale 999
▁Marija 999
▁nahajajo 999
▁daljši 999
▁pilo 999
▁spola 999
▁Zupan 999
▁posameznimi 999
FP 999
▁spletnega 999
▁poime 999
▁fotografij 999
▁uporabil 999
▁razte 999
logiji 999
▁zdravniki 999
▁pričakovali 999
▁učbe 999
▁pripravljajo 999
rate 999
▁Sha 999
valcem 999
▁2005). 999
▁učinkovit 999
▁vrednostjo 999
▁objavil 999
▁moške 999
▁kupil 999
▁ustanovitev 999
▁Konce 999
▁najstarej 999
▁uga 999
ročilo 999
metra 999
▁letošnje 999
▁Skla 999
▁reke 999
▁razumejo 999
▁razmišljanja 999
▁napravo 999
▁navedenih 999
int 999
povpre 999
▁milijon 999
00, 999
▁Is 999
▁konstan 999
▁destina 999
▁fakultete 999
▁prejela 999
▁nižja 999
▁Cor 999
▁koncem 999
valka 999
▁2004). 999
GRA 999
▁Af 999
nino 999
▁Lan 999
▁groz 999
▁veselje 999
▁naselja 999
bljajo 999
fikacije 999
▁zanesljivo 999
tnica 999
▁izmeri 999
oksi 999
▁Val 999
▁akademi 999
▁povprečne 999
▁izboljšati 999
tarja 999
▁Enako 999
▁objavlja 999
▁obremenitev 999
▁pelja 999
▁ankete 999
ditev 999
▁spremembi 999
▁turnir 999
58 999
▁nisi 999
▁ad 999
▁samode 999
tehni 999
▁zagotovili 999
▁današnjem 999
▁kvan 999
▁Bošt 999
▁kupec 999
▁stabilnost 999
▁dobesedno 999
deh 999
▁Anton 999
▁Vrh 999
▁parkiri 999
hodna 999
fan 999
▁madžar 999
▁festivala 999
▁oddelku 999
▁sani 999
▁možna 999
▁Nikoli 999
▁samih 999
▁skupnem 999
▁zamr 999
▁ocenili 999
▁voznik 999
▁nadaljnji 999
▁led 999
▁svi 999
▁partiza 999
ksa 999
▁rabo 999
▁najbli 999
▁gospodarskega 999
▁pomni 999
terjev 999
▁Ponu 999
▁takole 999
▁vrstni 999
▁javnostmi 999
▁RO 999
trom 999
▁smuči 999
▁musli 999
▁razko 999
▁sodnik 999
▁majhnih 999
▁interesu 999
▁operacije 999
▁odbo 999
▁Windows 999
merna 999
▁upri 999
▁mislijo 999
▁(» 999
▁krajih 999
▁use 999
▁potrjuje 999
▁opu 999
▁tar 999
▁fantje 999
▁Brazi 999
danes 999
▁oddajo 999
6: 999
lnemu 999
klica 999
▁čaro 999
▁davkov 999
lova 999
▁izvolje 999
▁zvesto 999
▁poskrbeti 999
▁oži 999
denje 999
▁predvidoma 999
▁določil 999
ljujemo 999
▁Ljubljano 999
▁zmagi 999
▁pravega 999
▁Grad 999
▁TI 999
▁zaposlenega 999
▁odpadki 999
▁mg 999
▁marsik 999
▁navzgor 999
▁problematiko 999
OVO 999
▁posojila 999
▁doseda 999
▁domišlji 999
lično 999
▁pušča 999
▁utri 999
▁Namreč 999
▁prvak 999
▁Adri 999
▁pobi 999
▁kariere 999
▁plan 999
▁GO 999
▁Dva 999
▁odboj 999
važa 999
ssa 999
gore 999
▁visokošol 999
▁krva 999
▁čakajo 999
▁urejeno 999
▁19, 999
▁dile 999
fov 999
▁Martin 999
▁obdelavo 999
▁motori 999
▁Vrednost 999
dovala 999
▁dosežemo 999
▁izvesti 999
▁govorim 999
▁fizične 999
▁glasbeni 999
▁krompi 999
▁namenjeni 999
žnice 999
ling 999
▁konkurenco 999
▁postati 999
▁nastanejo 999
▁Naša 999
▁Turči 999
▁načrte 999
tiri 999
šnih 999
čnice 999
▁ločeno 999
šja 999
▁prit 999
▁publi 999
▁direktno 999
▁SN 999
▁Opis 999
▁ročno 999
▁York 999
▁nadzornega 999
▁napadu 999
▁kakšnega 999
ktivni 999
▁ovira 999
▁vselej 999
▁uvrstitev 999
▁mislil 999
žnim 999
▁Prikaz 999
▁ustrezna 999
▁okno 999
▁nasploh 999
▁namenili 999
rine 999
▁župana 999
▁štipendi 999
dent 999
▁nekdanjega 999
▁omenil 999
rnikov 999
yo 999
▁kal 999
▁človeških 999
▁tednih 999
▁navajajo 999
▁Prosto 999
tove 999
▁nadaljevali 999
▁Prej 999
zal 999
tica 999
▁poslov 999
guje 999
▁Dvo 999
▁Stran 999
▁celotnem 999
▁1992 999
▁spoš 999
njaki 999
▁Hrvaško 999
▁razstave 999
▁pade 999
ženosti 999
▁odstranje 999
▁omejeno 999
▁organizacijah 999
▁nekajkrat 999
▁medicinske 999
▁efe 999
▁minute 999
▁zbornice 999
čeve 999
▁telekomunika 999
▁mandat 999
▁Olimpija 999
taciji 999
▁afe 999
MP 999
vost 999
▁papirjev 999
▁pridobivanja 999
▁telova 999
čenega 999
tnice 999
▁poru 999
▁preli 999
▁pojmo 999
▁osumlje 999
▁spremljajo 999
▁Maj 999
▁naprava 999
▁ustanove 999
▁glavnega 999
čas 999
▁letali 999
▁olj 999
▁Sveto 999
▁diploma 999
sve 999
the 999
▁ex 999
▁pravicah 999
▁trenerja 999
ljica 999
▁gledalcev 999
▁njima 999
▁utemelji 999
name 999
▁ujema 999
▁značilne 999
▁izkorišča 999
▁vrti 999
▁potrebam 999
▁prid 999
vito 999
▁horizo 999
▁igrah 999
▁pogajanj 999
▁semi 999
▁Podjetja 999
▁Aj 999
▁kršitve 999
▁Che 999
▁občino 999
▁kakr 999
▁upokoji 999
▁Poto 999
▁vlak 999
▁fra 999
▁čem 999
▁1994 999
▁dvoje 999
▁ekstre 999
▁Nadalje 999
▁vrednostnih 999
▁splošni 999
▁kroni 999
▁premak 999
bom 999
šajo 999
▁poslanec 999
šev 999
▁reforme 999
šak 999
dnike 999
▁urediti 999
▁nekatera 999
▁Spremem 999
▁25, 999
▁zob 999
69 999
▁mojih 999
▁Govori 999
▁dodano 999
▁naji 999
▁naredimo 999
čla 999
▁vašega 999
liga 999
▁aplikacij 999
ura 999
perati 999
▁odšel 999
▁Cla 999
▁učencem 999
▁evropska 999
▁sank 999
▁pripomore 999
▁zapre 999
▁turističnih 999
▁ZZ 999
▁-, 999
▁zami 999
▁Zavod 999
▁jabo 999
▁gozdar 999
▁urejanje 999
RED 999
▁stane 999
▁vodilni 999
▁industrija 999
▁podru 999
▁zaigra 999
▁odsotnosti 999
http 999
▁italijanski 999
stili 999
▁napaka 999
▁zmore 999
▁Flo 999
▁razprava 999
▁koro 999
▁orožje 999
▁taj 999
bile 999
▁dodatek 999
▁načrtovanju 999
▁mesa 999
▁prilagod 999
▁priselje 999
stveni 999
▁ravne 999
▁parametrov 999
▁ugotavljanje 999
rena 999
Pro 999
▁natančneje 999
▁poprav 999
▁koeficient 999
▁ustrezen 999
▁; 999
▁preus 999
▁literaturi 999
▁OK 999
▁Brus 999
▁izje 999
▁MS 999
▁spremenilo 999
▁takem 999
▁Opo 999
kosti 999
tija 999
▁enakoprav 999
ES 999
▁povo 999
▁koncentracije 999
stnosti 999
▁moderni 999
▁Popo 999
▁mojo 999
▁Van 999
▁odpla 999
▁Največji 999
vida 999
ls 999
▁kartice 999
▁pouk 999
▁banko 999
▁bloka 999
▁upravni 999
vidnost 999
▁presoja 999
1198 999
▁Fakul 999
▁prosil 999
RG 999
▁stolp 999
▁Dia 999
Ba 999
7: 999
▁generi 999
▁izvira 999
▁oskrbe 999
▁igrišču 999
▁podlage 999
seksu 999
▁odvisni 999
burg 999
zili 999
▁etni 999
▁čuti 999
pili 999
▁Barba 999
▁preveriti 999
dese 999
▁ključnega 999
▁kisi 999
▁dvoma 999
▁odru 999
▁soglasje 999
pini 999
▁ostati 999
▁konkurenci 999
▁stroj 999
▁Kje 999
lip 999
▁učnih 999
▁imenovani 999
▁pokal 999
▁najrazlične 999
stransko 999
▁papirja 999
šamo 999
▁62 999
▁portal 999
strop 999
hro 999
▁Sodišče 999
▁avtorja 999
▁nastanka 999
▁podpirajo 999
▁Notra 999
▁Isla 999
odstotni 999
▁ogledali 999
▁Predsta 999
▁63 999
▁8: 999
staviti 999
▁CD 999
▁razmišljanje 999
▁Ameriki 999
▁lov 999
tonu 999
▁prisotnosti 999
▁1997, 999
▁znamka 999
▁upoštevali 999
▁družinskih 999
▁naravni 999
▁podobnega 999
▁1.3 999
▁ocenjujejo 999
bin 999
▁hrana 999
▁poiskati 999
ness 999
▁moreš 999
šiti 999
▁ocenjevanja 999
▁novice 999
▁načrtov 999
▁ekonomskih 999
▁informacijski 999
▁založ 999
▁pretok 999
▁premajh 999
▁ES 999
snil 999
zujemo 999
▁formalno 999
▁trženj 999
▁0,2 999
▁volu 999
žitvi 999
zirana 999
▁kriterijev 999
▁die 999
njami 999
▁morja 999
▁režise 999
▁vrstah 999
▁tople 999
▁posebnosti 999
▁glasbeno 999
▁mol 999
72 999
bljenih 999
▁predstavitvi 999
šnika 999
▁Dro 999
ltra 999
▁opredeliti 999
▁preiskave 999
▁razda 999
▁cestni 999
▁trditve 999
▁zgodovina 999
menja 999
▁najboljšo 999
▁nudijo 999
cijskim 999
▁vti 999
▁jema 999
▁sveti 999
nis 999
▁Potrebno 999
▁nakupa 999
ashing 999
▁izbrane 999
▁uniji 999
▁senzor 999
▁čre 999
▁nastajajo 999
▁kode 999
▁dohodkov 999
▁premiš 999
▁prepoved 999
▁raznoliko 999
▁pope 999
89 999
lak 999
▁tovrstne 999
ČNI 999
▁spremenljivk 999
▁statusa 999
NJE 999
▁Mosk 999
▁igrati 999
▁alu 999
Ro 999
▁oddalje 999
▁zaključku 999
zniki 999
▁23, 999
lični 999
▁odpravili 999
▁6.1 999
▁simpto 999
▁nastopila 999
national 999
GD 999
▁mesečno 999
▁pristani 999
ER 999
▁poznam 999
▁zagotavljanja 999
▁trge 999
deno 999
▁solidar 999
▁odstavku 999
▁Povprečna 999
▁hudi 999
▁znašal 999
▁odrasle 999
▁Novem 999
gip 999
▁Romu 999
▁2003). 999
▁preba 999
pljenje 999
▁kaz 999
▁konstrukcije 999
▁spoji 999
▁Ble 999
▁iti 999
acijo 999
LU 999
cionalne 999
▁mole 999
▁pobra 999
bič 999
▁medije 999
▁arbitra 999
▁težavah 999
▁ostajajo 999
▁zaostaja 999
▁diplomske 999
▁zemljo 999
tolo 999
▁najmla 999
▁navedeno 999
▁dejavnostih 999
cm 999
▁bogati 999
▁Vin 999
-5 999
▁izvedel 999
mann 999
miti 999
▁male 999
▁terjatve 999
▁oblikujejo 999
▁Vzro 999
▁ideo 999
▁skrbijo 999
Fo 999
lcih 999
tvori 999
▁Elektro 999
▁realno 999
▁izveden 999
▁nanje 999
▁OS 999
▁načel 999
stka 999
▁mislih 999
▁začeti 999
▁nepred 999
▁temperaturo 999
▁šir 999
▁strategij 999
▁DRU 999
▁zraku 999
zove 999
▁tretja 999
▁splošnih 999
Be 999
▁proizvajalca 999
▁Prvič 999
▁vanj 999
▁Otrok 999
▁prisotni 999
▁zmanjšati 999
▁obremenitve 999
▁trženja 999
▁tradicijo 999
▁čustev 999
▁maksima 999
▁prejšnjem 999
▁omenjenega 999
73 999
▁Lani 999
▁nadomestila 999
▁Lepo 999
AS 999
▁Sr 999
▁2.4 999
▁bazi 999
▁Hipote 999
▁ozave 999
▁tokov 999
▁učitelja 999
▁vzorcu 999
▁januar 999
71 999
▁internetu 999
▁pridobila 999
83 999
jc 999
▁razstavo 999
▁ira 999
▁prikazana 999
tike 999
▁Kole 999
▁pokazalo 999
vanci 999
▁Europe 999
▁učenec 999
▁eksperimenta 999
▁Maja 999
▁najhi 999
konstru 999
▁osvobo 999
▁razsvet 999
▁želji 999
▁izvedba 999
▁pasu 999
▁igrala 999
▁kulturi 999
▁izdelavi 999
▁kvalitete 999
cio 999
▁Skoraj 999
▁stres 999
▁čiščenje 999
▁zbiranja 999
use 999
vancev 999
▁odločilo 999
▁oglaševal 999
▁Postopek 999
peli 999
▁boje 999
▁koncepta 999
▁Razlog 999
▁pripravljenost 999
▁rece 999
▁prehranje 999
▁bolnišnici 999
▁temeljito 999
OVI 999
▁počutje 999
▁težavo 999
▁diskur 999
dana 999
▁otrocih 999
▁tradicionalno 999
▁naziv 999
▁Temelj 999
▁Geor 999
▁bit 999
rale 999
▁2013). 999
▁univerzite 999
▁Rok 999
8: 999
▁teksti 999
▁vzne 999
▁plačo 999
▁vojsko 999
mentom 999
▁Andreja 999
▁vzpostaviti 999
▁sfe 999
▁babi 999
▁posebni 999
tini 999
▁pokro 999
▁dohodek 999
▁gradnji 999
▁teorijo 999
lie 999
▁Drago 999
▁pomembnost 999
▁drevesa 999
▁naenkrat 999
▁samim 999
▁demon 999
▁Novak 999
▁urad 999
▁prisoten 999
▁izpa 999
▁Geo 999
▁čude 999
▁vzeli 999
%. 999
▁komponente 999
▁povečali 999
4), 999
▁točkami 999
▁obisko 999
▁sproti 999
▁mara 999
▁vadbe 999
tku 999
cisti 999
▁Včeraj 999
▁poskus 999
▁biro 999
▁lokacije 999
žile 999
▁deloval 999
▁vladajo 999
▁posami 999
▁Takoj 999
▁dojen 999
▁naroda 999
▁dokazuje 999
▁Sil 999
siste 999
▁dajem 999
▁poglavi 999
▁Napo 999
▁aktivne 999
▁Nisem 999
▁letala 999
▁situacija 999
zirali 999
▁FI 999
▁mestom 999
▁She 999
▁trdo 999
▁kazno 999
▁izbrani 999
▁dogajalo 999
▁Microsoft 999
▁številnimi 999
▁pari 999
..... 999
▁priznati 999
▁računovodskih 999
tirali 999
▁stališč 999
▁izkušnjo 999
▁Trans 999
▁wi 999
LINK 999
▁ciga 999
▁nesta 999
▁predlagam 999
▁površini 999
▁ženo 999
▁vidno 999
▁obdelo 999
▁celoto 999
▁ohranje 999
▁pokazati 999
▁66 999
▁DI 999
čenost 999
▁div 999
rad 999
AJ 999
▁vertika 999
bje 999
▁Smi 999
šala 999
čanov 999
▁Polja 999
▁pripisa 999
▁kupiti 999
▁ljudeh 999
▁dona 999
▁normati 999
▁partnerjev 999
▁upoštevanju 999
▁poslovnem 999
▁zadel 999
▁prisluh 999
mpe 999
▁zasle 999
▁smernice 999
▁krista 999
▁maj 999
▁nikogar 999
▁lestvice 999
▁zasebnih 999
▁vike 999
rskih 999
▁koraku 999
▁prejšnje 999
▁Beogra 999
▁zaseda 999
fona 999
▁vplivov 999
▁brat 999
▁škat 999
▁izgradnjo 999
▁urada 999
▁preživetje 999
▁delega 999
▁izbral 999
▁izbran 999
▁osrednji 999
letnih 999
▁dvoj 999
▁počuti 999
▁simula 999
▁karieri 999
kev 999
▁Ab 999
%, 999
▁zagre 999
tena 999
▁podali 999
zirano 999
▁belja 999
▁odločno 999
▁lanskega 999
▁organizacijsko 999
▁Najpogoste 999
njenost 999
▁Naspro 999
▁Spoštovani 999
skozi 999
▁časopis 999
▁postavila 999
godba 999
▁napolni 999
▁poskušal 999
▁prof 999
▁zeleno 999
nad 999
▁spremlje 999
▁imi 999
lle 999
klic 999
▁bogate 999
▁računalnika 999
▁farmacev 999
bino 999
▁hra 999
▁dokumente 999
lizacija 999
▁pisanje 999
▁prikazani 999
tinui 999
▁Klemen 999
ffi 999
▁podprli 999
▁posodobi 999
merne 999
▁uravna 999
▁odgovorilo 999
▁kdor 999
▁potovanja 999
one 999
▁dodelje 999
▁določimo 999
▁razvelja 999
▁tj 999
dakti 999
pala 999
finan 999
▁meso 999
▁vzorce 999
▁mio 999
▁kariero 999
URS 999
▁tržnih 999
▁Vodja 999
▁skaka 999
▁ustanova 999
▁vrnili 999
▁ustvarjanja 999
sche 999
▁Skozi 999
▁Char 999
šujem 999
chen 999
▁Društvo 999
▁okna 999
▁čustveno 999
▁Center 999
5: 999
habili 999
▁omejena 999
▁Kme 999
▁razvese 999
▁navade 999
tus 999
▁tujino 999
▁5.3 999
▁naravnost 999
▁sklepamo 999
▁izse 999
▁neja 999
82 999
▁3.4 999
▁dokumentacijo 999
▁novost 999
▁priori 999
leto 999
▁ostanejo 999
▁naslovu 999
▁slišal 999
▁neso 999
▁hipoteze 999
▁populacije 999
▁zagotovil 999
▁Ministrstva 999
▁mane 999
▁presti 999
▁drog 999
▁nedol 999
▁opozoriti 999
▁omrežij 999
▁zgornji 999
▁neskon 999
▁interven 999
▁predmeta 999
part 999
▁luč 999
▁ponov 999
▁severno 999
▁preho 999
nager 999
▁tabli 999
▁sledil 999
▁osvojila 999
▁pretre 999
▁tekmovanju 999
▁označuje 999
▁prevzela 999
▁vase 999
zirajo 999
▁paket 999
▁koru 999
▁Boris 999
0). 999
▁družbah 999
rur 999
▁vrha 999
▁proizvoda 999
▁strinjajo 999
▁avtomobili 999
▁najhu 999
▁Švica 999
▁Tak 999
gradnje 999
▁merjenja 999
slav 999
▁Menim 999
▁Google 999
▁kompro 999
▁stil 999
▁kombinaciji 999
▁zagotovila 999
▁občinskega 999
mijo 999
pod 999
▁sou 999
▁prestrukturi 999
▁emo 999
▁smerni 999
▁študenti 999
▁lista 999
nson 999
▁zmanjšala 999
▁seri 999
▁Drugače 999
▁skušali 999
▁AC 999
▁Naslednji 999
▁dokazov 999
deni 999
▁lah 999
▁trening 999
56 999
▁Alo 999
mija 999
▁hrvaški 999
▁barvi 999
▁radika 999
▁izv 999
▁vsebini 999
las 999
▁opazimo 999
▁elementa 999
▁reagi 999
▁ozadju 999
▁delovanjem 999
▁vpra 999
▁linear 999
51 999
rico 999
▁10: 999
▁drugod 999
▁reak 999
▁klopi 999
▁sodobni 999
▁prevod 999
▁terapev 999
▁brezposelnih 999
dovati 999
▁izgleda 999
▁obnovo 999
▁pouku 999
čnostjo 999
ult 999
▁24, 999
▁Kočev 999
▁združuje 999
▁prispevajo 999
▁ustvaril 999
vz 999
▁hiter 999
▁oboje 999
▁prere 999
▁publika 999
▁srednjih 999
▁neustrez 999
▁Proiz 999
▁podoba 999
▁veter 999
▁napadal 999
▁delodajalec 999
▁temno 999
▁doživel 999
rjeve 999
▁Naš 999
▁zgre 999
▁Lin 999
▁Matej 999
▁spodbujajo 999
▁odličen 999
▁sprejemanje 999
▁predlagala 999
▁ustvarili 999
▁Bojan 999
▁upravljanju 999
▁59 999
▁sina 999
▁slednji 999
▁današnje 999
dniku 999
▁kmet 999
gie 999
▁Bohi 999
prodaj 999
▁stavb 999
▁Dav 999
▁pojavila 999
▁con 999
▁pretirano 999
▁blagi 999
▁zbira 999
▁EC 999
▁kod 999
▁povprečje 999
▁Rusija 999
.12 999
▁izhodišče 999
▁osmi 999
mska 999
▁2014, 999
cher 999
▁ovir 999
ves 999
▁pošilj 999
▁zavesti 999
▁potr 999
▁kaznivega 999
▁Aleš 999
nus 999
▁ponudbi 999
▁splošnem 999
gt 999
grede 999
▁zaprt 999
▁stabili 999
▁Bus 999
▁ubi 999
▁naslednjo 999
▁jese 999
▁toži 999
▁pisno 999
tkom 999
narji 999
▁obrne 999
števi 999
▁kakršno 999
kur 999
▁61 999
sona 999
▁centri 999
▁zgodaj 999
▁duha 999
▁interesi 999
▁administrati 999
▁vrtec 999
▁odpravo 999
▁izvoli 999
▁gozd 999
▁ugotavljajo 999
▁pes 999
▁kvaliteto 999
jal 999
▁vrednotenje 999
▁fazo 999
▁Canka 999
▁Washing 999
▁poži 999
jskimi 999
sec 999
▁oddaji 999
▁omeniti 999
▁odločanju 999
▁Projekt 999
▁Zuna 999
▁drobno 999
▁računov 999
cijskimi 999
▁mala 999
▁tehnik 999
▁bodoče 999
▁življenjske 999
▁nizka 999
zga 999
▁1993 999
▁vpis 999
▁trdno 999
▁matere 999
▁osnovnega 999
▁sno 999
▁Zaveda 999
▁Ger 999
▁narava 999
▁preprečiti 999
▁izogniti 999
▁nagrad 999
▁sestavine 999
▁nikjer 999
tele 999
▁dolgotraj 999
▁zasebnega 999
▁teri 999
▁kandidati 999
▁diferenci 999
▁razloge 999
▁0: 999
▁Uro 999
▁Vese 999
▁Marjan 999
▁Nače 999
jete 999
▁Razlika 999
▁potru 999
rjevo 999
čanja 999
▁vzgojno 999
▁stala 999
▁obiskovalci 999
▁tola 999
▁slovenskim 999
▁boži 999
▁topli 999
ranost 999
▁obdelave 999
zih 999
▁kW 999
▁Banka 999
▁najvišjo 999
▁rob 999
govori 999
▁poudarjajo 999
▁fakulteti 999
▁informacijsko 999
▁nacionalno 999
beremo 999
▁pridel 999
▁obnašanje 999
▁dolžine 999
▁testa 999
▁Italije 999
▁las 999
▁Temu 999
▁prepričanje 999
▁pokojnine 999
vit 999
▁enakih 999
▁stopinj 999
▁nizke 999
mladi 999
zorja 999
▁termina 999
▁Portugal 999
▁nesreči 999
52 999
stnim 999
▁vzgojo 999
▁podpre 999
▁zaloge 999
▁ero 999
▁sma 999
▁ubo 999
alnim 999
▁agrega 999
▁karto 999
▁Pivo 999
▁mreža 999
▁tednov 999
▁vplivala 999
▁prilagoditi 999
▁Zaposleni 999
▁mobilnih 999
▁hip 999
▁okolico 999
▁Slovenskem 999
▁odgovoriti 999
▁Predvide 999
▁Preden 999
▁pridobijo 999
▁72 999
▁tretjo 999
79 999
stim 999
▁usmerjena 999
74 999
mite 999
▁spletna 999
▁posredni 999
LNI 999
▁peči 999
▁Osnovni 999
▁standarde 999
▁dodala 999
▁šolski 999
lio 999
▁Vodi 999
▁vedela 999
▁predlagali 999
▁Zgor 999
▁prostori 999
▁sodelovala 999
▁SLS 999
▁oblikovati 999
KC 999
▁Pravzaprav 999
▁LI 999
▁korupcije 999
▁vno 999
▁razvojni 999
▁osebam 999
stek 999
▁komo 999
taplja 999
▁izvora 999
▁vprašalnika 999
▁sprejemajo 999
▁izpopolnje 999
▁nasprotnem 999
▁aktivni 999
▁preganja 999
▁nadvse 999
▁Centra 999
▁napredovanje 999
▁Sal 999
▁stečaj 999
81 999
stiti 999
▁sadja 999
▁Udele 999
▁pozorni 999
lske 999
TS 999
▁omogočila 999
▁razvitih 999
tveni 999
▁zavarovalnice 999
▁delodajalca 999
▁podra 999
▁motivacije 999
▁Dre 999
▁vid 999
dena 999
▁koalicije 999
pravne 999
▁gradnja 999
▁ozra 999
▁paten 999
▁Velike 999
▁poslanske 999
čemo 999
▁hčer 999
▁prikazan 999
LJI 999
▁bogato 999
▁dovoljeno 999
▁gib 999
▁pisarni 999
▁površina 999
▁odprl 999
▁seksu 999
▁oblikah 999
▁Tretji 999
▁razvojno 999
▁Drnov 999
▁Vpliv 999
▁trdijo 999
▁Kor 999
daljo 999
▁linije 999
▁razviti 999
fikacija 999
▁tabela 999
▁dvori 999
▁album 999
▁interesa 999
▁elektronskih 999
▁izrec 999
▁poškodba 999
▁Alba 999
jočega 999
▁naredijo 999
peta 999
▁teku 999
▁vabi 999
časoma 999
▁Bila 999
▁Velenje 999
▁dimenzije 999
▁prevladu 999
▁človeške 999
tvam 999
▁zakonske 999
▁sino 999
▁povedano 999
▁ustanovitvi 999
▁spolno 999
Co 999
▁Koli 999
stnost 999
▁odhaja 999
liam 999
▁južno 999
pine 999
▁vojakov 999
▁Ljubljan 999
▁umaza 999
▁ugodnosti 999
▁motivacijo 999
▁Nobe 999
▁členom 999
▁komponent 999
▁trajanja 999
84 999
▁Treba 999
▁malen 999
▁prvaki 999
žnica 999
▁pošti 999
▁Struktu 999
▁doline 999
▁tiskovna 999
▁Kranju 999
▁0,1 999
▁izguba 999
▁mnenj 999
▁dodeli 999
▁International 999
▁∙ 999
▁steča 999
▁vključi 999
▁objavi 999
▁nastalo 999
▁gozdov 999
vko 999
čkih 999
▁Londonu 999
▁Prek 999
▁sedi 999
MU 999
nsam 999
stero 999
▁Tom 999
▁absolutno 999
▁vodilnih 999
▁bistvo 999
▁Phi 999
▁policistov 999
▁PI 999
▁vprašanji 999
pravljanje 999
▁izdal 999
▁nanjo 999
▁Krka 999
▁Naro 999
▁shrani 999
ction 999
bid 999
▁stal 999
▁razumeli 999
ameri 999
ine 999
▁Rena 999
▁očmi 999
▁odprtih 999
▁ohraniti 999
▁Fina 999
▁kolikš 999
▁vzrokov 999
▁gru 999
▁kohe 999
▁Borut 999
▁rešili 999
▁neraz 999
▁vprašalnik 999
▁poročanju 999
▁Bli 999
▁dosego 999
bniki 999
▁konceptu 999
▁izraza 999
▁strogo 999
tice 999
acija 999
▁denarni 999
▁indika 999
▁Vid 999
▁Britaniji 999
▁rehabili 999
.../ 999
▁znižanje 999
▁Mnogi 999
▁začenja 999
▁električno 999
RJ 999
gnosti 999
▁Dostop 999
▁potrdilo 999
▁azi 999
tična 999
▁dopi 999
▁stekle 999
▁storili 999
▁mišice 999
▁razvili 999
▁glasbenih 999
▁zdravnika 999
▁posojil 999
▁prt 999
▁uporabniku 999
▁upoštevamo 999
▁življenjskega 999
▁Kdor 999
▁medo 999
kipe 999
▁Ener 999
▁parka 999
▁atribu 999
▁določanje 999
▁sogovorni 999
▁PS 999
▁letnih 999
▁osebja 999
▁vzdušje 999
▁podzem 999
▁SV 999
▁poskrbeli 999
▁Nemčije 999
▁ravneh 999
lizacijo 999
▁osebna 999
▁toplote 999
▁plačil 999
▁Banke 999
▁krivi 999
▁vrnila 999
▁slabega 999
▁tren 999
▁temeljni 999
▁Miro 999
▁prihodu 999
▁izvajali 999
njenja 999
▁prvim 999
▁vodilo 999
▁zmanjševanje 999
▁samomo 999
▁francoski 999
trga 999
▁ustave 999
▁vrta 999
▁vrtu 999
▁kvanti 999
ranim 999
▁predsedniku 999
njujemo 999
▁športu 999
▁opravljati 999
▁notranjosti 999
▁Jako 999
▁televizije 999
▁hvale 999
čevanjem 999
▁koti 999
▁Madri 999
vke 999
▁izbrati 999
▁mano 999
▁poskrbel 999
▁republika 999
▁presenečenje 999
kovno 999
▁verodo 999
▁iskali 999
▁znanjem 999
▁predstavljeni 999
▁ospred 999
▁vašem 999
▁ključna 999
.11 999
▁Kajti 999
▁zaščita 999
▁nadaljevala 999
▁navedene 999
člove 999
▁živeli 999
njanje 999
vljenje 999
▁posamezniku 999
▁načinom 999
▁Evropskega 999
ŽI 999
▁povezujejo 999
▁imeni 999
▁dodatnega 999
▁najslab 999
▁obvladovanje 999
▁tud 999
▁opazil 999
▁Ita 999
▁nedavno 999
▁oblikoval 999
▁posamezna 999
▁vojaških 999
▁stika 999
▁Pan 999
▁jutra 999
▁strankami 999
▁morebitnih 999
▁delala 999
▁projektih 999
▁Krško 999
▁ideolo 999
▁konfliktov 999
▁les 999
▁dogovora 999
▁Zma 999
▁vašo 999
vina 999
gah 999
▁Domža 999
▁dajo 999
▁dok 999
▁enci 999
▁celovito 999
▁posu 999
▁primerni 999
▁česti 999
▁stekla 999
▁črni 999
▁delamo 999
▁ugodno 999
▁omogočiti 999
▁ocenil 999
prosto 999
▁vojaško 999
▁odločitvi 999
Di 999
▁Hen 999
▁mestne 999
▁odkar 999
▁:) 999
▁odgovorili 999
limi 999
▁objekte 999
▁verjetnosti 999
▁omogoči 999
▁kruh 999
▁sedanje 999
;# 999
▁nekih 999
čevala 999
▁ospredju 999
▁tekoče 999
▁psa 999
▁fotograf 999
▁dijakov 999
▁prosla 999
▁avtonomi 999
▁pozabiti 999
▁zahtevali 999
xa 999
odvi 999
▁9: 999
▁0,01 999
▁izvajanjem 999
▁Vide 999
▁ščiti 999
▁1995, 999
▁zbirke 999
▁prihrani 999
▁odziva 999
▁nekaterimi 999
▁financ 999
▁Rezultat 999
▁Portoro 999
šijo 999
▁Jeseni 999
▁televiziji 999
con 999
nesla 999
▁čudno 999
▁živah 999
▁0,3 999
▁poseg 999
▁servis 999
▁konference 999
▁110 999
▁pisal 999
▁daro 999
▁vrtca 999
▁krep 999
lnic 999
▁hitri 999
rma 999
▁Glavna 999
▁osebje 999
▁uspešne 999
▁vzeti 999
▁tekom 999
▁67 999
▁nastopili 999
saj 999
▁okoljem 999
▁trditvijo 999
▁2002). 999
▁čast 999
▁omrežju 999
▁razsežnosti 999
▁upravnih 999
▁bazo 999
ŠI 999
▁branja 999
rant 999
▁dodatni 999
▁tehniko 999
▁izpostavil 999
▁pelje 999
▁priporočila 999
▁dosle 999
▁vreden 999
▁zmožnost 999
▁knjižnice 999
čiča 999
▁spreminjanje 999
▁Patri 999
▁poslovna 999
▁stere 999
pne 999
seg 999
▁proizvodnih 999
▁ekstra 999
▁kombinacija 999
▁logično 999
▁razmisli 999
▁horizonta 999
▁vsta 999
volite 999
▁mleko 999
▁učitelje 999
abbr 999
▁serija 999
▁mladostni 999
jec 999
▁polna 999
▁predmete 999
▁okus 999
▁opozori 999
▁celotna 999
▁sonce 999
▁melo 999
▁odboru 999
▁ozemlju 999
▁poskušajo 999
▁zahvali 999
▁konkurenca 999
▁zaščiti 999
tjem 999
▁Luk 999
▁vrniti 999
▁pripeljal 999
▁dolžnost 999
▁policiji 999
▁Maribora 999
▁hitrostjo 999
valva 999
▁Jese 999
▁upad 999
▁istočasno 999
▁ponudi 999
▁vključiti 999
▁Stan 999
▁2014). 999
▁Svoje 999
▁premoženj 999
▁stabilnosti 999
▁ris 999
nden 999
▁učenju 999
▁dobaviteljev 999
▁11: 999
▁aler 999
▁bomba 999
▁izvajalci 999
▁vstopu 999
ncih 999
▁sporazume 999
▁Ugotovili 999
▁maji 999
DR 999
▁udeležbo 999
▁učinkovita 999
▁teoriji 999
▁predstavnika 999
▁pridemo 999
-4 999
▁profesor 999
▁bolnišnice 999
▁proizvajalci 999
▁zgodbi 999
▁nadzorom 999
▁skratka 999
▁kombinacijo 999
cin 999
▁osla 999
▁okoliščinah 999
▁dejstev 999
▁veljati 999
▁ekološko 999
▁odpraviti 999
▁Pen 999
vnico 999
▁članek 999
▁olimpijskih 999
▁redni 999
▁koncev 999
▁primerjamo 999
▁omogočili 999
▁sreb 999
▁Zgodovi 999
▁sobe 999
▁uvede 999
▁nadzorni 999
▁zama 999
lue 999
▁poišče 999
▁konkretnih 999
mene 999
rnika 999
▁ponudil 999
▁spoznanja 999
gene 999
▁ustni 999
▁zahtevam 999
▁učenca 999
▁zgodila 999
▁Imamo 999
▁daljše 999
▁sistemati 999
▁interna 999
▁stopil 999
▁anga 999
▁damo 999
▁dolgotra 999
▁nadstrop 999
▁nacionalnega 999
▁konkurenčnosti 999
▁Izi 999
▁denarne 999
▁zanimajo 999
▁pooblastila 999
▁otvori 999
▁26, 999
▁popusti 999
▁Avstrija 999
▁dosegajo 999
▁alp 999
kovem 999
merij 999
▁table 999
▁nakaza 999
▁Pot 999
▁des 999
▁Štajer 999
▁usmeritev 999
vita 999
▁Inštitu 999
▁pobude 999
▁France 999
▁menedž 999
▁vzpostavlje 999
zvo 999
vc 999
▁proge 999
▁Fan 999
▁arti 999
▁kosov 999
▁upravnega 999
varne 999
▁obnašanja 999
Od 999
▁Zdi 999
▁sedanjo 999
sovanje 999
▁predo 999
▁omenjena 999
▁gara 999
▁nemške 999
gelj 999
▁diplomat 999
▁ustanavlja 999
stja 999
▁Cilji 999
▁revidi 999
CC 999
▁Hr 999
▁nižjo 999
▁revizor 999
▁trženje 999
▁želo 999
▁predstavljena 999
▁harmo 999
▁Raziskava 999
▁Ad 999
▁telefonu 999
▁očita 999
delovanje 999
▁oznako 999
▁zanimalo 999
▁metra 999
varstve 999
yja 999
▁očeh 999
ganista 999
▁oprosti 999
▁iniciati 999
▁mestnega 999
▁DV 999
▁Proti 999
▁Moti 999
▁Izobra 999
▁šolskem 999
▁vključili 999
▁ilustra 999
▁okri 999
▁nepriča 999
▁trgovina 999
▁okoliščin 999
▁Zado 999
▁proizvajalcev 999
▁Izbi 999
▁potnikov 999
▁zvrsti 999
▁oddaj 999
▁Stopnja 999
▁partici 999
▁stike 999
▁moštva 999
▁porazdeli 999
▁pivo 999
▁sistematično 999
rjanje 999
▁načini 999
▁ekonomije 999
▁razvijati 999
▁IS 999
▁pogovarjali 999
▁vesel 999
▁krizi 999
▁informacijskih 999
kg 999
▁Stroški 999
▁1,2 999
▁zaro 999
▁detaj 999
▁karkoli 999
▁problematike 999
fra 999
▁neprofi 999
ženjem 999
▁asfal 999
▁turne 999
▁prehodu 999
vimi 999
▁Slu 999
▁Takšna 999
▁Demo 999
▁potrditev 999
▁enaj 999
▁policijo 999
▁besedil 999
▁praz 999
▁prijazno 999
▁prepričana 999
noma 999
▁znali 999
ket 999
▁uporabila 999
▁Zaklju 999
stitev 999
stavimo 999
▁Zahte 999
sur 999
jko 999
▁Star 999
▁lansko 999
▁opravljanja 999
▁Varnost 999
▁odprla 999
▁Genera 999
▁prsti 999
▁ponudnikov 999
▁uporabljena 999
bulan 999
▁ples 999
▁reza 999
▁kmetijske 999
▁spremembami 999
▁stiku 999
▁učni 999
▁komisiji 999
▁sporedu 999
kole 999
▁neposredne 999
▁izdelu 999
▁priznal 999
▁posredovanje 999
ščob 999
▁korpora 999
▁180 999
▁libera 999
▁Kmalu 999
▁mandata 999
▁lokaciji 999
dala 999
▁optimalno 999
▁skupinami 999
▁kakršne 999
▁Kasneje 999
vljenega 999
▁premika 999
▁pozno 999
▁kupcem 999
▁izpolnjuje 999
▁mednarodna 999
▁koder 999
▁porta 999
▁PC 999
▁Manage 999
▁licen 999
▁motiv 999
▁seznamu 999
rnil 999
presi 999
▁fotoa 999
▁prtlja 999
▁redkih 999
ira 999
▁Tem 999
▁rek 999
▁kota 999
▁vami 999
▁Kamni 999
morti 999
▁nedelj 999
rodna 999
▁dramati 999
▁kvo 999
▁delovala 999
▁svetovanje 999
▁predsednica 999
▁Večino 999
▁stvare 999
▁geometri 999
▁jad 999
▁avtonom 999
▁dogodku 999
▁Moja 999
▁sistemih 999
▁načeloma 999
▁pozitivnih 999
dža 999
▁komentar 999
▁generalni 999
▁vreč 999
▁pala 999
▁zahtevala 999
▁6.2 999
▁znal 999
VOD 999
sci 999
reden 999
▁omogočil 999
goni 999
▁izdelali 999
poslo 999
▁oblačil 999
▁mladim 999
▁prebivalstvo 999
PRA 999
▁špe 999
▁plin 999
▁domačo 999
▁kozmeti 999
▁vključevanje 999
▁$ 999
▁flu 999
▁Bilo 999
▁čokola 999
▁premisli 999
ženec 999
▁Zvo 999
▁muzej 999
53 999
ktivne 999
▁minimalno 999
▁novinarjev 999
UR 999
▁objavo 999
▁žre 999
▁Zago 999
▁značaja 999
▁blagovnih 999
▁vmesni 999
▁Proces 999
▁družinske 999
▁neha 999
▁poni 999
▁Politi 999
▁abstra 999
▁zakonitosti 999
▁pripi 999
dge 999
▁vzhodu 999
▁odlična 999
▁poizku 999
▁ogrevanje 999
▁Klu 999
▁Argen 999
▁obstoja 999
▁opisal 999
▁Wo 999
▁Njihova 999
▁promocijo 999
▁regionalni 999
▁PP 999
glejte 999
▁komisijo 999
▁prijavi 999
▁zlorabe 999
▁stroke 999
▁anonim 999
uer 999
ženost 999
▁68 999
ročila 999
▁London 999
▁točkah 999
▁kategorijo 999
▁** 999
▁vzdol 999
▁izbrala 999
▁študent 999
▁zdravili 999
▁zavest 999
▁Kristu 999
▁poskrbi 999
▁nege 999
▁prihran 999
▁Kitajska 999
▁kontinui 999
▁Čez 999
▁prebu 999
▁figu 999
▁razmišljati 999
▁Gorici 999
▁produkt 999
▁denarnih 999
lla 999
▁ključ 999
54 999
▁Avtor 999
samo 999
▁plati 999
ljivimi 999
▁lastnine 999
▁družinskega 999
▁okupa 999
▁prevoza 999
▁povezanosti 999
▁Belo 999
▁Dolgo 999
Slove 999
▁odločiti 999
▁Preve 999
▁ponudniki 999
čenosti 999
KS 999
▁samostojni 999
▁itn 999
▁sija 999
▁Ama 999
▁povzročila 999
▁skušal 999
ffe 999
▁prepleta 999
▁preživel 999
▁Ili 999
▁dragoce 999
Je 999
▁preo 999
▁tujega 999
▁prevladuje 999
▁velikimi 999
▁zamenjal 999
▁zasluži 999
▁premagal 999
▁Blo 999
▁beljakovi 999
▁duhovni 999
▁presenetljivo 999
tam 999
▁zlata 999
▁Janković 999
▁davčnega 999
▁Regi 999
mino 999
▁neodvisno 999
▁negativnih 999
toma 999
▁nosilec 999
pdf 999
ranimi 999
▁Odbor 999
▁prostovoljno 999
▁psihia 999
▁formi 999
▁ustreznega 999
▁vključenih 999
▁Tho 999
▁Stri 999
▁delijo 999
▁pritiskom 999
sand 999
▁sever 999
▁prehra 999
▁staršem 999
šček 999
▁četrto 999
▁vozili 999
▁nerazu 999
▁tvoj 999
▁najraje 999
LJU 999
▁razbre 999
▁uredili 999
▁kritično 999
▁salo 999
▁prepovedi 999
▁šolskega 999
▁standarda 999
▁zapustil 999
▁blagovno 999
▁poročajo 999
▁zago 999
▁formu 999
▁Prihod 999
▁kilogramov 999
▁kupce 999
▁Zavarovalni 999
▁oksi 999
▁Imam 999
metre 999
▁Lep 999
▁razlago 999
▁Najpomemb 999
▁mili 999
▁zmanjšali 999
bet 999
sin 999
▁zgod 999
▁kolek 999
▁vožnji 999
▁pisanja 999
▁sladkorja 999
▁odgovorno 999
▁Dani 999
▁Zavoda 999
▁načelu 999
▁vzorci 999
▁vplivalo 999
▁Nemci 999
▁Osred 999
▁delimo 999
▁izrazil 999
stika 999
▁vsakemu 999
čniki 999
▁sloga 999
▁Člani 999
pira 999
šenih 999
▁verige 999
▁dreves 999
dnikom 999
▁algorit 999
▁maščob 999
vske 999
▁doživela 999
▁zaposlen 999
▁0,6 999
▁beto 999
▁sestavo 999
▁dokazati 999
selj 999
▁naselje 999
▁končali 999
▁letnik 999
▁dolžino 999
stnem 999
▁(1) 999
▁vseskozi 999
▁letnega 999
▁dogovarja 999
▁Direkti 999
▁spomladi 999
▁Parizu 999
▁kopr 999
▁prele 999
▁centimetrov 999
▁koledar 999
▁popi 999
▁mrz 999
▁propad 999
peri 999
▁uspela 999
▁proračunu 999
▁parku 999
▁pokrajine 999
▁zvok 999
dino 999
▁Posku 999
▁zlahka 999
▁pustil 999
▁lice 999
peljal 999
govz 999
hče 999
▁razvil 999
▁vprašanjem 999
▁golju 999
▁drevo 999
▁anima 999
▁700 999
▁identiteto 999
▁zasebne 999
▁kriterij 999
▁sanje 999
▁Eri 999
▁Facebook 999
▁prodajnih 999
▁zahodni 999
▁val 999
▁pasti 999
▁diplomi 999
▁izvedeli 999
▁Boštjan 999
▁situacijah 999
polni 999
▁prikazo 999
▁poglavja 999
2), 999
▁sladkor 999
▁datoteke 999
▁Vrho 999
▁nemško 999
▁medij 999
▁Poveda 999
▁napaja 999
▁civilne 999
▁Človek 999
▁kriterije 999
▁poklicno 999
▁Poveza 999
▁živimo 999
▁urejajo 999
▁razdalje 999
gate 999
▁pik 999
▁redke 999
OVE 999
ŠE 999
▁končne 999
▁lokacijo 999
▁pop 999
▁opaziti 999
▁preostalih 999
▁samosta 999
▁izdaje 999
▁dolgoročne 999
▁ameriška 999
▁posreduje 999
phi 999
▁zabo 999
▁LO 999
▁srcu 999
▁informacijskega 999
▁znanstveno 999
ŽE 999
▁živel 999
njenega 999
▁demograf 999
cia 999
▁nesmi 999
▁milijone 999
▁nebe 999
▁splošna 999
alnimi 999
▁prikazati 999
▁[@ 999
▁mobilne 999
▁zasebno 999
▁centrov 999
▁kulturnega 999
▁hodi 999
▁Slovensko 999
▁prodajajo 999
tano 999
▁razso 999
▁mehanizem 999
▁pridobljenih 999
▁uvrstili 999
▁poga 999
▁ulice 999
▁Občine 999
▁občinah 999
▁pisanju 999
▁posveto 999
▁12: 999
▁kali 999
▁postopno 999
▁turistično 999
3), 999
▁nemških 999
▁ustvarjanju 999
▁rati 999
▁zdravstvo 999
▁simbol 999
▁razumel 999
▁nujna 999
cionalna 999
▁fri 999
▁Metoda 999
▁izberemo 999
▁veteri 999
▁prelo 999
▁programih 999
?? 999
200 999
▁kirur 999
▁obračun 999
▁odjemalcev 999
▁ambulan 999
▁navedeni 999
jenega 999
▁27, 999
▁akadem 999
▁klica 999
▁zajtr 999
▁Film 999
▁arhe 999
1), 999
▁Angle 999
▁krajev 999
▁zagovorni 999
▁Moški 999
▁razstavi 999
▁skrbeti 999
PK 999
MW 999
▁dotika 999
▁karte 999
▁razpravljati 999
▁zvi 999
▁kaznivo 999
▁odločijo 999
▁devetdesetih 999
▁potovanje 999
59 999
▁tima 999
▁nesreča 999
Foto 999
▁priznanja 999
čice 999
▁hitrejši 999
stavljajo 999
▁vprašanjih 999
▁lotili 999
▁900 999
▁telefona 999
tekti 999
▁napoveduje 999
kovni 999
▁tlak 999
▁nepomem 999
luje 999
▁toli 999
ljivim 999
▁zagotavljanju 999
▁EN 999
▁Valen 999
▁2015). 999
▁koži 999
lana 999
▁Gorenje 999
ziona 999
▁odpira 999
▁izražanja 999
▁prinašajo 999
▁osemdesetih 999
▁zabavo 999
▁središča 999
▁turnirju 999
▁preiskavo 999
▁izvajalcev 999
▁POS 999
▁mize 999
▁denarjem 999
▁namenja 999
▁prijatelja 999
▁Kore 999
▁Vsaj 999
▁fizika 999
▁trak 999
▁zasu 999
tum 999
▁gledano 999
mas 999
km 999
znost 999
▁izjavil 999
▁Univerze 999
▁delodajalci 999
▁Franci 999
jka 999
▁Balka 999
▁slogu 999
▁slabši 999
▁nestr 999
▁sosed 999
▁snega 999
▁vaših 999
▁cerkvi 999
▁pripadniki 999
▁človeškega 999
▁Izdela 999
▁nekaterim 999
vetja 999
▁vrednotenja 999
▁28, 999
cimo 999
▁fasa 999
▁Nihče 999
▁prikazano 999
▁suhe 999
stnimi 999
▁Staro 999
▁specifične 999
pul 999
▁mamo 999
▁vplivati 999
▁spremembam 999
▁nevarno 999
▁dogodkih 999
noj 999
▁povzročil 999
▁CA 999
jati 999
▁William 999
▁najdejo 999
▁izdala 999
sca 999
▁30, 999
▁organizacijskih 999
▁žan 999
▁IV 999
▁NK 999
▁dolžan 999
▁nekakšen 999
▁69 999
ščanju 999
tions 999
▁vroče 999
čić 999
▁porodni 999
▁prište 999
▁Tan 999
-1, 999
▁množice 999
▁popestri 999
UT 999
▁oškodo 999
▁prikazali 999
▁Osnovna 999
▁konven 999
▁ustanov 999
▁elektronskega 999
▁pogledamo 999
▁neverjetno 999
▁odpeljali 999
▁občutka 999
mek 999
rac 999
▁družinski 999
▁etike 999
▁didakti 999
▁vodstvu 999
▁izobliko 999
▁AM 999
▁Svetov 999
▁pojavil 999
▁fotografijo 999
▁Trdi 999
▁resnice 999
▁prepričati 999
rjenega 999
▁produktov 999
▁temperaturi 999
ČA 999
▁cca 999
▁ugle 999
▁vira 999
▁razmerij 999
▁načrti 999
▁dosežejo 999
▁Super 999
▁au 999
▁pozitivna 999
▁cenah 999
▁preusmeri 999
▁potrošniki 999
▁podvr 999
▁nadle 999
▁občutno 999
5), 999
▁City 999
▁Radi 999
nto 999
▁neskla 999
kat 999
▁izpodbi 999
▁nano 999
▁unijo 999
▁izbrisa 999
▁2008. 999
▁Zagreb 999
▁konkretne 999
▁nižjih 999
▁stikov 999
▁izboljšave 999
BS 999
▁dobrin 999
▁klubov 999
▁malega 999
▁prehrane 999
▁izrecno 999
ell 999
šenja 999
▁zakla 999
▁poslanstvo 999
▁pH 999
▁ocenah 999
▁tržnega 999
▁strankam 999
▁astro 999
▁človeško 999
▁sodobnega 999
▁ministrica 999
▁kamen 999
▁predstavljala 999
▁učinka 999
▁teži 999
▁razvila 999
cent 999
▁Stu 999
▁plinov 999
▁primerjava 999
ud 999
ent 999
tropo 999
▁Kopru 999
zmi 999
▁dirki 999
ljavo 999
▁ostro 999
▁193 999
▁socio 999
▁večjem 999
▁nagovo 999
▁postale 999
▁podpisal 999
▁teritori 999
▁SIST 999
▁postaji 999
▁članom 999
teo 999
▁slediti 999
▁poznati 999
čica 999
▁dežele 999
▁turistov 999
sol 999
▁pomisle 999
▁Kav 999
▁Bolga 999
▁izvoz 999
▁povečanja 999
spodar 999
▁Slednji 999
▁invalidov 999
▁pojasnili 999
mila 999
▁sponta 999
▁definira 999
zan 999
▁dopust 999
▁potencia 999
▁reakcije 999
▁zanimanja 999
▁dogovorili 999
▁zakonodaji 999
▁vojaški 999
lici 999
reditev 999
bih 999
gnejo 999
radni 999
▁zasi 999
▁termo 999
▁igralka 999
▁gledalci 999
▁KS 999
zilo 999
govanje 999
▁sklicu 999
▁vnaša 999
▁odgovorna 999
najstih 999
▁razvite 999
vanec 999
▁prijave 999
genera 999
bala 999
▁razumljivo 999
▁časi 999
silje 999
▁sprehaja 999
▁izkoristiti 999
▁objave 999
▁tvorijo 999
▁pričakovanj 999
▁individualno 999
tiranje 999
▁konkurenčnost 999
▁99 999
delja 999
NIK 999
UN 999
▁spremljali 999
▁peto 999
▁sredine 999
▁logo 999
▁ansam 999
▁razvijanje 999
genci 999
▁ponekod 999
▁spoznal 999
▁narodno 999
▁Rado 999
▁uresničevanje 999
gnemo 999
▁transa 999
▁met 999
▁gradbenih 999
LJA 999
▁mešča 999
jam 999
▁srečujejo 999
▁preprečuje 999
ECD 999
▁najte 999
▁širok 999
žkov 999
▁zgodil 999
▁povprečni 999
▁modele 999
▁divja 999
▁zahva 999
rdo 999
speš 999
▁znaki 999
▁novome 999
▁Američani 999
▁Italijo 999
▁Hit 999
▁ameriško 999
▁izdelava 999
ncu 999
▁leža 999
▁slog 999
▁Rusiji 999
znam 999
▁Ekonom 999
▁nakazuje 999
▁uslužbencev 999
▁soglasja 999
▁sposobna 999
▁77 999
▁Šport 999
Fi 999
▁izvedena 999
▁Nadzor 999
▁izoli 999
▁nastali 999
▁dopoldne 999
▁Bur 999
▁vanjo 999
▁kandidi 999
▁dodaten 999
▁Jose 999
fizi 999
▁delcev 999
▁tekmoval 999
▁četrtem 999
▁izbo 999
▁sklepov 999
▁določb 999
▁tko 999
▁hranje 999
▁Ženske 999
▁amandmaju 999
▁raziskovalno 999
▁vmesnik 999
▁enostavne 999
mel 999
PU 999
▁Predpo 999
▁tebi 999
▁signal 999
berite 999
genj 999
▁vodili 999
▁obte 999
▁objavili 999
▁studi 999
fikacijo 999
▁tretjini 999
kciji 999
▁sodbe 999
▁ostalim 999
▁informacijah 999
▁bloki 999
▁šolskih 999
tičnih 999
figu 999
▁2010. 999
▁zgradili 999
▁motivacija 999
▁izrael 999
▁usmeritve 999
▁upanje 999
▁reforma 999
▁(0 999
dravi 999
▁minuto 999
▁vodenju 999
▁posameznem 999
jali 999
▁sproži 999
▁obdobjih 999
▁ladje 999
▁pogojem 999
ov 999
šanja 999
▁Prese 999
▁dolžina 999
▁spletnem 999
▁jedro 999
▁kosti 999
▁rezervi 999
▁odsotnost 999
njah 999
valen 999
▁Slovenj 999
▁Čr 999
▁Mali 999
▁močjo 999
▁unija 999
▁pravem 999
▁1994, 999
▁opravljeno 999
qui 999
rer 999
▁Načr 999
▁združe 999
▁predmeti 999
▁povezovanja 999
▁gledati 999
▁prepričanju 999
čnikov 999
▁disk 999
▁ploščo 999
skanje 999
▁osamlje 999
▁tedensko 999
▁opravljanju 999
▁Neu 999
▁mlada 999
▁Gol 999
▁prag 999
▁privede 999
▁ponudili 999
▁instrumenta 999
▁prehoda 999
▁skušajo 999
▁Obve 999
▁slednje 999
tako 999
▁stope 999
▁vrati 999
liza 999
▁polčasu 999
▁pripombe 999
▁poletje 999
▁zgodb 999
▁predsednikom 999
▁reprodu 999
▁Mercator 999
▁tehnični 999
▁izmenjavo 999
ston 999
▁Cerkev 999
▁nasproti 999
koliko 999
▁obišče 999
▁prijatelje 999
▁elektrarne 999
▁časovni 999
▁pooblašče 999
▁vpla 999
▁prebral 999
▁elasti 999
▁izposo 999
▁obstoječega 999
▁februar 999
▁nenavadno 999
▁fun 999
▁meril 999
▁režiser 999
▁Tina 999
▁multimedi 999
▁ustanovljena 999
▁Sli 999
glas 999
▁dobrim 999
▁verjeti 999
▁Srbiji 999
▁sveži 999
▁smisla 999
▁kisline 999
▁delavcem 999
▁sprašuje 999
▁zaključek 999
▁najboljšega 999
izobraže 999
▁lad 999
▁76 999
stuje 999
▁zaokro 999
▁pokopali 999
▁rekonstru 999
▁Hra 999
▁privile 999
rjevi 999
jala 999
▁prikaže 999
▁množico 999
▁nesposo 999
▁imenovane 999
▁občinskih 999
▁AN 999
▁zadaj 999
▁temeljna 999
▁Dam 999
▁vnos 999
▁prevozni 999
lska 999
▁flo 999
▁črta 999
▁glasbi 999
▁odvisne 999
lsko 999
▁nabra 999
▁(2) 999
▁tan 999
▁hotelu 999
▁1) 999
▁Ran 999
▁sejem 999
▁znašel 999
ljivostjo 999
▁turnirja 999
▁muslima 999
▁švica 999
▁industrijo 999
▁KM 999
▁legitim 999
'. 999
▁pozimi 999
ller 999
▁petimi 999
▁devetih 999
▁dostojan 999
▁ocen 999
▁obnov 999
▁varče 999
▁sklenil 999
prva 999
▁Bene 999
▁arab 999
▁obrambi 999
▁letalo 999
▁uvajanje 999
▁ustavo 999
ŽA 999
▁obiskal 999
SKO 999
▁najo 999
▁tujine 999
▁lasten 999
▁hočejo 999
▁množično 999
▁posnetek 999
▁prevladujejo 999
kus 999
▁nuj 999
▁oder 999
dije 999
▁gradbi 999
▁razvije 999
▁nemi 999
▁jasna 999
▁državam 999
▁nadaljnjo 999
žiga 999
▁OZN 999
doben 999
▁upor 999
wood 999
▁človeški 999
▁pripravljenosti 999
▁Hitro 999
▁Koroškem 999
nitvi 999
▁bova 999
▁štar 999
▁kakšnem 999
▁Tol 999
▁rojstni 999
▁soigra 999
CIJE 999
▁scenari 999
▁zavedamo 999
▁nao 999
▁hrbte 999
–1 999
▁hr 999
▁sodniki 999
▁kmetijstva 999
▁veščin 999
▁pravim 999
stavila 999
▁Uradni 999
▁vetra 999
▁kazalnikov 999
goj 999
▁Pono 999
ljev 999
▁ljudske 999
žki 999
▁posojilo 999
kič 999
▁13: 999
▁sodobno 999
▁pesti 999
▁njihovimi 999
dovih 999
▁razumevanju 999
▁rib 999
▁drugačni 999
▁STO 999
▁samodejno 999
▁nastopu 999
▁kvadratnih 999
▁ciklu 999
▁streho 999
▁izkušnjami 999
OVA 999
sova 999
▁pokalu 999
▁desetletja 999
▁192 999
▁oja 999
▁dvomi 999
▁referendum 999
časni 999
▁atra 999
▁Obliko 999
▁nemškega 999
▁kritike 999
sse 999
can 999
▁udeležili 999
▁nasmeh 999
▁kvalitetno 999
▁odte 999
▁oblikovali 999
▁resnico 999
stven 999
▁sledili 999
▁številki 999
▁vesolj 999
▁povzema 999
▁register 999
rum 999
▁ml 999
▁kolu 999
▁sešte 999
▁različico 999
▁študentje 999
▁pripravljene 999
▁Upošte 999
▁mestnih 999
▁oceniti 999
▁gledališča 999
▁postavljena 999
▁visokega 999
▁analiz 999
▁tragi 999
▁praznik 999
▁navedbah 999
▁panoge 999
▁nemoteno 999
▁prihodke 999
▁Mitja 999
▁zavodu 999
valnik 999
▁objavila 999
▁ponudnika 999
▁hormo 999
▁služijo 999
▁neprestano 999
▁amandmaja 999
▁zdravnikov 999
▁3,5 999
mik 999
▁Trbo 999
▁zdravju 999
▁fotoapara 999
▁imen 999
▁5- 999
▁članku 999
▁žene 999
menju 999
▁kateremu 999
▁naravnega 999
▁popravlja 999
▁desetletjih 999
▁poln 999
▁odločali 999
▁vizijo 999
▁namenjenih 999
▁računalniško 999
zec 999
▁ponuditi 999
▁stereoti 999
▁Zakono 999
▁krepitev 999
▁gora 999
▁Težko 999
▁občinstvo 999
zda 999
▁Union 999
▁portfe 999
▁razdelili 999
▁filozof 999
▁skladišče 999
▁igralce 999
HA 999
▁znes 999
▁ponavljajo 999
▁kogniti 999
likop 999
▁angaži 999
rskega 999
▁proizvede 999
▁kompozi 999
5.000 999
ziral 999
▁Rich 999
▁posle 999
▁obrambe 999
▁pokriva 999
▁Herce 999
▁Ocena 999
▁prodali 999
▁ski 999
▁takšnem 999
alen 999
▁Črno 999
▁platfor 999
▁Razu 999
▁Družba 999
ntov 999
▁dialog 999
▁pripadnosti 999
letela 999
▁italijanske 999
▁arhiv 999
▁akciji 999
▁vojaki 999
grafijo 999
cker 999
gove 999
▁George 999
▁mlajših 999
▁računalnikov 999
▁2.5 999
▁Dal 999
▁Golo 999
▁(19 999
▁opozorili 999
Bi 999
▁Sploh 999
▁Postoj 999
▁kupili 999
▁lanskem 999
▁nenadoma 999
▁insta 999
▁nepričako 999
▁ustanovitve 999
▁poganja 999
▁130 999
▁sodnika 999
▁žu 999
▁Obenem 999
▁šolsko 999
▁vplivi 999
▁razredi 999
▁samopodo 999
CT 999
▁inci 999
▁tribu 999
▁10.000 999
CIJ 999
Hz 999
▁Plani 999
▁zakri 999
sion 999
elektra 999
Ur 999
▁pnev 999
▁izjema 999
▁dosežke 999
▁ohla 999
▁trajno 999
▁načrtuje 999
▁Sobota 999
▁odvisnost 999
▁predstavljal 999
mol 999
▁raziskovalci 999
tiran 999
▁povrni 999
▁kartico 999
gl 999
vozni 999
stnika 999
▁postopkom 999
▁upravičeno 999
▁policijske 999
dva 999
▁sprejemanja 999
▁spor 999
▁skrbni 999
▁imenovan 999
▁dež 999
▁loč 999
▁intim 999
▁Gradi 999
▁Funk 999
▁priznava 999
▁neučinkovi 999
▁α 999
▁‒ 999
▁Vseeno 999
ew 999
▁Kos 999
▁Kraj 999
▁Iva 999
▁dirke 999
▁Los 999
▁napadov 999
Sta 999
▁78 999
▁odpoved 999
▁imenovano 999
▁nespremenje 999
Ca 999
▁33, 999
▁omenili 999
jšem 999
▁paki 999
▁doktor 999
▁ljubeze 999
▁koristno 999
▁borzi 999
▁prisotne 999
▁Real 999
▁izvedla 999
▁maksimalno 999
▁dosta 999
▁strateškega 999
pravno 999
▁PRA 999
▁sum 999
▁Cera 999
▁vodjo 999
▁Španiji 999
▁izkazal 999
▁jasen 999
▁SKUPAJ 999
▁1,0 999
▁vznemi 999
▁poudarila 999
▁amorti 999
▁trajajo 999
▁prispeval 999
▁Sp 999
▁Čer 999
▁plane 999
▁najprimer 999
▁pripeljali 999
▁klic 999
▁sneg 999
▁primerjave 999
vizije 999
▁gozda 999
▁vzela 999
▁izkaže 999
▁pridružil 999
▁bivši 999
▁premie 999
▁predlogom 999
▁direktorica 999
▁zdrave 999
▁proizvajalec 999
▁lobi 999
▁Tone 999
▁nacionali 999
▁odgovorila 999
▁Dušan 999
▁poskusi 999
▁vrnitev 999
▁/.../ 999
▁kompetence 999
▁informacija 999
▁prispevki 999
žniki 999
▁ugotavljamo 999
ener 999
▁urejena 999
▁vege 999
▁izčrpa 999
▁Katari 999
▁hitrejše 999
▁različnim 999
▁testiranje 999
ljice 999
porati 999
▁njenim 999
▁prahu 999
▁4.4 999
▁diagnosti 999
kopla 999
▁.... 999
▁branju 999
▁najljub 999
▁četrtfina 999
valnim 999
▁zabave 999
sij 999
kujem 999
▁tabori 999
▁obsojen 999
▁pisma 999
▁zmagovalec 999
▁Pet 999
▁volilni 999
▁ustvarila 999
▁tožbo 999
▁dokazo 999
▁vzgoja 999
▁delovnim 999
▁sestanku 999
▁Prodaja 999
▁Oče 999
▁diplomskem 999
▁odškodnine 999
šite 999
▁Bruslju 999
tnico 999
▁znanju 999
▁turistični 999
▁modi 999
▁brisa 999
▁organizatorji 999
▁gospe 999
bilnega 999
▁71 999
▁članstvo 999
vino 999
So 999
▁enakem 999
▁podeželja 999
▁zaključil 999
▁TR 999
▁gumb 999
▁moni 999
▁nomina 999
▁domina 999
▁zaračuna 999
▁rekord 999
gnal 999
dimen 999
▁odpove 999
▁popolna 999
▁kontrola 999
▁Hy 999
šnega 999
▁sateli 999
▁opravljenih 999
pni 999
▁Zemlji 999
▁73 999
▁najla 999
gy 999
▁enotno 999
▁kmetije 999
▁stanovanjskih 999
hur 999
▁slovenskimi 999
▁skrajno 999
▁družbena 999
▁funkcioni 999
▁Jesenice 999
▁določenimi 999
alnem 999
▁zbirko 999
ters 999
▁redne 999
deri 999
▁Met 999
▁uvedbe 999
▁Organizacija 999
▁razbu 999
▁izvoza 999
▁ljudstva 999
▁klasične 999
▁počitnice 999
▁doseganju 999
▁Hon 999
vitev 999
▁črne 999
▁vratar 999
▁SF 999
▁mise 999
▁razpa 999
▁šolske 999
▁Bio 999
bit 999
▁skupščine 999
▁29, 999
▁zapisala 999
hajamo 999
▁enajst 999
▁zagotovljena 999
▁jekle 999
▁Janše 999
▁klik 999
▁zelene 999
▁fakulteta 999
▁rep 999
▁Erja 999
▁tale 999
▁2001). 999
▁obože 999
tiral 999
▁izdelkih 999
velj 999
▁zbirka 999
▁ohranitev 999
reni 999
▁poučevanja 999
cation 999
▁fazah 999
▁ruski 999
▁Minister 999
▁opri 999
▁ribo 999
▁prodajne 999
▁dostopnost 999
▁podjetništva 999
▁komple 999
▁Ander 999
rednih 999
▁pripadnost 999
▁Jen 999
Iz 999
▁Kate 999
▁napor 999
▁sodne 999
▁Turisti 999
▁padavin 999
▁najpomembnejša 999
▁Pregled 999
pravni 999
▁morata 999
▁Pozdrav 999
▁možganov 999
cel 999
▁tožbe 999
▁raziskavah 999
▁večjim 999
▁Potr 999
▁Spozna 999
dera 999
jočo 999
mskem 999
▁dodati 999
▁preprost 999
▁polne 999
▁spolne 999
▁močnejši 999
▁liga 999
▁previso 999
tovih 999
▁smise 999
▁bivanje 999
▁pozitivni 999
▁obravnavajo 999
ek 999
▁pojava 999
▁konji 999
▁seriji 999
▁srednjo 999
▁končanem 999
▁sodelovalo 999
jemu 999
▁sčasoma 999
loški 999
▁Red 999
▁Akti 999
psi 999
žica 999
▁strateško 999
▁izrek 999
▁finala 999
▁Odno 999
▁Festi 999
sing 999
▁kav 999
▁aplikacijo 999
6), 999
▁preverili 999
ENI 999
▁(0, 999
▁nabo 999
▁obali 999
▁Nena 999
kluzi 999
▁sorazmerno 999
▁čevlje 999
▁načrtih 999
▁ustavnega 999
▁Dve 999
▁most 999
▁merilo 999
rednosti 999
▁veščine 999
▁besedilu 999
▁dobavitelji 999
▁poročali 999
▁referenduma 999
▁vsakodnevno 999
▁občinske 999
▁voditelji 999
▁nemu 999
▁strateških 999
mum 999
▁vztraj 999
▁sho 999
▁Izbra 999
▁zakone 999
beri 999
▁Slovenskih 999
▁mark 999
▁embalaže 999
▁različica 999
▁Hil 999
▁dokapita 999
▁pravih 999
▁prepove 999
▁spoštovanja 999
▁Air 999
▁selektor 999
▁zmanjšal 999
▁stvareh 999
▁legendar 999
▁festivalu 999
▁potencialnih 999
▁progi 999
▁Britanija 999
▁prizadeva 999
▁@ 999
▁davčna 999
▁prijavo 999
________________ 999
▁Spi 999
▁ubra 999
▁reprezentanca 999
▁Skr 999
▁graditi 999
▁predvideno 999
▁bolniki 999
▁klet 999
▁veljalo 999
▁povprečja 999
▁31, 999
nav 999
▁koalicija 999
▁dejavnostjo 999
▁umre 999
pljenja 999
▁napred 999
Uradni 999
▁avten 999
▁predelo 999
▁prvotno 999
nile 999
]: 999
▁bel 999
lis 999
▁ozemlja 999
▁uradnih 999
▁konkurenčne 999
▁helikop 999
▁zdravilo 999
▁upokojencev 999
▁postajajo 999
▁presko 999
▁Spa 999
▁odmo 999
▁presta 999
▁Posledično 999
▁zmagala 999
▁pooblastil 999
▁podpis 999
▁ravnove 999
▁poslovod 999
▁preteklost 999
▁Roga 999
▁prenovi 999
sed 999
▁delitve 999
▁smatra 999
▁minimalne 999
vnostjo 999
spre 999
▁odveč 999
▁podelje 999
▁operacij 999
▁beli 999
▁Raziskoval 999
▁00 999
krog 999
▁kazalo 999
▁Njen 999
▁2009. 999
▁slikar 999
tilo 999
▁pomor 999
▁izbrano 999
muje 999
▁rojstva 999
▁nabor 999
▁Simon 999
▁skladišča 999
▁20- 999
▁Alenka 999
▁izvajalca 999
ward 999
▁pestro 999
uk 999
▁oli 999
▁strojev 999
▁vere 999
▁Izvolite 999
jenost 999
▁oglasi 999
▁prodati 999
▁74 999
česa 999
▁akt 999
▁vzroke 999
▁fol 999
▁fiska 999
▁spomnil 999
▁zbranih 999
▁zasebnosti 999
▁dla 999
▁Michael 999
▁prispevka 999
▁kakovostne 999
▁novinarski 999
▁štejemo 999
▁Njena 999
▁mlajše 999
tti 999
▁sestavin 999
▁marketinga 999
▁pravili 999
▁predpostavlja 999
▁spušča 999
▁mladimi 999
▁enakomerno 999
pp 999
▁igrišča 999
▁predvidena 999
▁Kata 999
▁reso 999
▁obsta 999
▁PU 999
▁stroja 999
▁zmerno 999
▁pridelo 999
▁Ek 999
štvom 999
▁gola 999
▁podprl 999
▁ore 999
▁dalji 999
▁prena 999
▁popolne 999
▁narejena 999
▁državljan 999
▁sekunde 999
▁Prednost 999
▁izobrazba 999
vnici 999
▁ribe 999
▁dolino 999
▁gibanju 999
▁Đ 999
▁bančnih 999
▁stekleni 999
Mar 999
▁Vem 999
▁Roman 999
▁vesti 999
▁prizadevanja 999
litr 999
▁Srbije 999
▁HD 999
LIKA 999
▁tečaja 999
▁nosečnosti 999
▁2016). 999
lskih 999
▁pož 999
▁vložili 999
šku 999
brez 999
▁Napa 999
▁odšli 999
▁uvrstila 999
tos 999
dnice 999
centra 999
▁Mü 999
▁pogovora 999
▁volitvami 999
▁stanovanjske 999
▁sodbo 999
▁smeti 999
▁pričakovano 999
▁elegan 999
▁zadovoljna 999
šju 999
▁Yorku 999
▁98 999
čnica 999
tirajo 999
hen 999
▁razredov 999
▁_ 999
▁fant 999
▁nujne 999
ano 999
▁mobilni 999
▁2007. 999
▁mem 999
▁2000). 999
▁participa 999
▁petnajst 999
▁spregleda 999
▁prepričanja 999
jeve 999
▁obvešča 999
▁kampanje 999
govornik 999
bs 999
▁pogovori 999
▁humanita 999
▁pošt 999
▁poslanskih 999
▁vključena 999
▁gledališče 999
▁Ljud 999
▁urbani 999
▁finančnem 999
▁× 999
▁briga 999
dobra 999
▁Vzpo 999
▁simpati 999
▁naučiti 999
▁podpredsednik 999
▁modre 999
▁Zbi 999
▁slučajno 999
▁jutro 999
▁listov 999
▁omejen 999
▁straho 999
▁kN 999
▁izida 999
▁dvoboj 999
▁obkro 999
▁14: 999
discipli 999
▁poklicne 999
▁predstavljene 999
posle 999
▁Moram 999
OS 999
▁akcija 999
▁koncentracija 999
▁režim 999
▁postajo 999
▁cilju 999
▁vnese 999
▁obrestne 999
▁organizirali 999
▁Mehi 999
▁varnostni 999
▁napisala 999
žma 999
▁širitev 999
▁Hri 999
▁bolnišnico 999
▁Rast 999
▁funkciji 999
▁ureditvi 999
▁ustanovili 999
Pi 999
▁tovarni 999
▁Dose 999
▁izpad 999
▁uspehu 999
mera 999
▁razč 999
▁čiste 999
▁mul 999
▁odkup 999
▁Zadnja 999
▁Vipa 999
dene 999
▁menta 999
▁izvajalec 999
▁15: 999
▁lon 999
▁končnih 999
▁pristojni 999
▁Št 999
▁naštetih 999
▁bol 999
▁preizkus 999
▁zgodovinsko 999
▁objavljen 999
▁konver 999
▁uporabijo 999
zali 999
▁ritem 999
▁majhni 999
▁Management 999
▁obravnavati 999
▁litrov 999
▁sindikatov 999
rea 999
▁Spet 999
letnik 999
▁vredna 999
Ho 999
▁uvedbi 999
▁prometno 999
▁Gaš 999
predvsem 999
▁doživeli 999
▁navedli 999
▁fotografiji 999
▁Toliko 999
▁številna 999
▁pacientov 999
▁končnega 999
▁urejanja 999
ljujem 999
▁izhodišča 999
▁Šma 999
▁jed 999
▁ponudb 999
▁poslala 999
▁reorgani 999
eu 999
▁smeli 999
▁pisali 999
▁prišle 999
▁bolnika 999
logu 999
▁svetom 999
▁izkoristili 999
▁dimenzij 999
▁plošč 999
▁popolda 999
▁praks 999
▁stanovanju 999
kori 999
▁bok 999
▁dek 999
▁kome 999
▁kozar 999
▁odstotki 999
▁sklenili 999
▁sprejemanju 999
▁Rober 999
▁davkopla 999
krajša 999
▁brata 999
▁širšem 999
▁porabnikov 999
▁odbi 999
▁plačal 999
▁okle 999
▁doje 999
▁Im 999
▁nesprejem 999
▁uporabljal 999
▁akumula 999
sove 999
▁Velik 999
▁gledamo 999
▁norme 999
će 999
▁jugu 999
▁cesar 999
▁mišljenja 999
znem 999
▁napredka 999
▁Hercegovi 999
▁etno 999
žnimi 999
▁fro 999
▁podpori 999
▁strežnik 999
▁predstavljamo 999
dt 999
vedba 999
▁trgovinah 999
rela 999
▁Group 999
▁vikend 999
▁nameravajo 999
▁diagno 999
▁aero 999
▁šibke 999
čk 999
▁general 999
▁zahtevami 999
▁posameznike 999
▁pokažejo 999
▁scenarij 999
▁sestanek 999
▁Ome 999
▁ustavil 999
▁kompetenc 999
▁ljubljanske 999
▁posnetkov 999
▁dosledno 999
stvene 999
▁Policisti 999
▁naročnika 999
▁uvedli 999
▁izjavi 999
▁prepla 999
▁Običajno 999
▁pravosodje 999
▁zdravljenju 999
Ti 999
▁nasla 999
gn 999
▁0,4 999
▁kodi 999
ščenost 999
▁voditi 999
▁preveri 999
nsu 999
▁namena 999
▁kazensko 999
▁funkcionalnosti 999
▁rodil 999
▁minuli 999
▁čebu 999
▁prebivalca 999
▁gledajo 999
▁Španija 999
▁pripadnikov 999
▁odred 999
▁skrivnosti 999
▁Bled 999
▁britanski 999
▁razbremeni 999
▁javnim 999
▁zmanjšanja 999
▁3- 999
▁začnemo 999
▁koncentracijo 999
▁Naše 999
▁Diplo 999
▁povzročijo 999
▁govorila 999
▁BMW 999
▁mislimo 999
stvena 999
▁nasvet 999
▁Inte 999
▁Razme 999
▁predstavljati 999
▁opravljal 999
▁pape 999
▁večera 999
▁posvoji 999
▁prilagajanje 999
▁Primož 999
▁operacijo 999
▁Radio 999
▁zavarovanju 999
▁SPO 999
▁možni 999
▁razdelimo 999
loške 999
▁mera 999
▁nakna 999
tte 999
voja 999
▁Največja 999
▁odvetni 999
▁prebivali 999
▁pokojninsko 999
valnimi 999
▁dolgih 999
▁dvorano 999
▁opisali 999
deč 999
▁Dragi 999
▁zapomni 999
▁pacienta 999
▁spomnim 999
metu 999
▁poimenovali 999
▁instrumentov 999
▁navse 999
▁učijo 999
▁predstavljen 999
▁brezposelnost 999
▁Avstrije 999
remenje 999
▁ostri 999
▁povpraša 999
▁zagotovitev 999
▁2) 999
▁gli 999
▁splača 999
▁zavaja 999
▁marketing 999
tiki 999
▁140 999
▁pustili 999
▁konvenci 999
▁odpovedi 999
▁partnerjem 999
▁afri 999
▁članicah 999
▁geode 999
▁pričeli 999
▁promovi 999
▁Velja 999
▁Nemčijo 999
▁160 999
▁der 999
▁2015, 999
▁tovrstno 999
▁Izrael 999
▁Dunaju 999
▁potreboval 999
▁nadomestilo 999
▁težkih 999
▁seminar 999
▁nemudoma 999
▁pridobljene 999
▁82 999
▁vsebnost 999
▁prenove 999
Lju 999
▁Hal 999
▁Kitajskem 999
▁skupščini 999
RC 999
teme 999
▁juni 999
▁3000 999
▁osvojili 999
▁Uporablja 999
▁ohi 999
▁vožnja 999
▁pomenila 999
šolci 999
▁pričakoval 999
▁strokovnjak 999
▁Jasno 999
▁tehnološko 999
▁premagali 999
▁prispevali 999
▁nos 999
▁mašče 999
▁neura 999
cena 999
▁navijači 999
▁zagotavljati 999
▁samoo 999
▁zdravstvu 999
▁definicije 999
▁Premi 999
▁izšla 999
▁svetovna 999
▁predava 999
▁družinsko 999
sco 999
▁Druge 999
▁Defini 999
▁slova 999
▁zadnjič 999
▁cenovno 999
▁razglasi 999
▁ministrov 999
▁širjenje 999
▁nosijo 999
▁poslanca 999
redna 999
▁leve 999
hih 999
▁DELA 999
▁nepla 999
▁civilno 999
▁zakonskih 999
mulacije 999
GP 999
mnih 999
▁kadarkoli 999
▁realnosti 999
▁opredelili 999
▁voj 999
▁kino 999
▁pravilih 999
▁tekočine 999
▁prostorskih 999
FA 999
▁trideset 999
▁Niti 999
.” 999
▁Takšno 999
▁tovarne 999
▁življenjem 999
sis 999
▁Oh 999
▁bitja 999
▁naročnik 999
▁zaključili 999
razi 999
▁košarka 999
▁plačuje 999
▁ponedelj 999
▁0,000 999
▁Slabo 999
ctor 999
▁nogometni 999
TVE 999
▁prikazane 999
▁voznika 999
maj 999
▁nezmo 999
▁težka 999
TRO 999
▁Branko 999
▁kosilo 999
▁sporov 999
ms 999
tene 999
▁Pin 999
▁dokazali 999
▁posebnim 999
centri 999
▁deželi 999
▁aktivnih 999
Lo 999
▁generacija 999
▁rubri 999
▁navedel 999
▁varnostno 999
▁nemška 999
lišč 999
▁zasa 999
▁motenj 999
▁dividen 999
▁nagrada 999
tvene 999
▁darilo 999
▁4- 999
▁zavodov 999
▁dogovoru 999
▁odprti 999
▁veselo 999
▁Pričako 999
▁študente 999
▁kriteriji 999
▁Proce 999
čitvi 999
▁člankov 999
ani 999
▁serijo 999
▁zažive 999
▁kono 999
▁tujcev 999
▁severu 999
▁ukvarjati 999
▁aktov 999
▁konta 999
poro 999
ntri 999
▁vlaganja 999
▁opozorilo 999
▁razmišljajo 999
▁Pomu 999
▁organe 999
▁Posebej 999
▁vpraš 999
▁pogovorov 999
▁globalno 999
▁prispevala 999
remo 999
šati 999
▁AFP 999
▁hol 999
▁vladne 999
▁ciljno 999
▁spoznala 999
▁posledico 999
čeh 999
▁Izpo 999
▁strankar 999
▁dušo 999
▁usmerjeno 999
ziv 999
CD 999
▁KON 999
▁Zoran 999
▁zmanjšalo 999
▁primerjali 999
▁spreminjati 999
▁varia 999
▁vsakdo 999
▁verodostoj 999
▁ane 999
▁Vklju 999
▁Slednje 999
▁čist 999
▁kmetiji 999
rand 999
▁uvajanja 999
žlja 999
▁letne 999
▁neodvisnosti 999
▁izobraževalnih 999
▁50. 999
▁abstrak 999
toka 999
▁združenje 999
▁Študen 999
op 999
▁2012. 999
▁igrišče 999
▁državljane 999
▁gozdu 999
▁zvezde 999
▁imenoval 999
▁bolečina 999
▁nenazadnje 999
▁upravne 999
▁volivcev 999
▁muzi 999
▁fizičnih 999
▁notranjost 999
gr 999
▁prile 999
▁časovnem 999
šti 999
▁usmerjene 999
▁Posebno 999
▁enostaven 999
▁inovacije 999
▁prostih 999
▁projektom 999
kovec 999
▁ugiba 999
Že 999
ralno 999
linari 999
▁izpit 999
▁imenujejo 999
vića 999
▁jezera 999
▁prikazujejo 999
▁Dana 999
▁preverjanja 999
TER 999
▁Najmanj 999
▁končani 999
VNI 999
ford 999
▁izdelati 999
lop 999
▁steno 999
▁šesti 999
▁medicine 999
▁posameznikom 999
-200 999
▁aplikacija 999
▁reguli 999
▁nabave 999
▁Jor 999
▁zapa 999
▁bilan 999
▁spominu 999
▁domačini 999
▁osredotoča 999
dex 999
▁skladiš 999
▁izražajo 999
▁financiranju 999
▁BE 999
▁neprimerno 999
▁zemljiško 999
▁neodvisnost 999
servati 999
▁suho 999
▁zbral 999
▁32, 999
▁Psi 999
▁Sen 999
dablja 999
▁značaj 999
▁narejen 999
▁prispevke 999
▁vključitev 999
▁enotah 999
▁AP 999
▁postavimo 999
▁sodnikov 999
▁prenašajo 999
war 999
▁učno 999
▁seznama 999
▁dvanajst 999
▁kreditov 999
▁toplotne 999
▁naviga 999
▁96 999
▁Tekmo 999
▁možen 999
▁mine 999
▁zelenjave 999
uma 999
▁resničnost 999
▁Moje 999
▁surovin 999
▁Olimpije 999
▁Ribni 999
▁Študi 999
▁hle 999
▁obstoječi 999
▁zavarovanj 999
▁usklajevanje 999
▁psov 999
▁Natan 999
▁kakršen 999
▁Frank 999
▁prili 999
▁splošnega 999
jšimi 999
▁hočemo 999
▁srečali 999
▁laže 999
letja 999
▁tlaka 999
▁zdaleč 999
▁prelom 999
▁demonstra 999
▁pogajanjih 999
▁MMC 999
▁znatno 999
▁ustvarjalnost 999
▁svetil 999
▁dejstvu 999
▁reševati 999
00. 999
▁88 999
▁Nagra 999
▁Sovje 999
▁postelji 999
▁tebe 999
▁predvoli 999
bio 999
▁Nav 999
▁Radov 999
▁reprezentanco 999
▁nazor 999
▁presku 999
▁razisku 999
▁obvestila 999
▁zvoka 999
fije 999
▁Republika 999
▁druženje 999
▁Četr 999
▁jugovz 999
▁zaloga 999
▁obraza 999
▁rednega 999
▁linija 999
▁natanko 999
▁posveča 999
mrt 999
▁povečujejo 999
pozna 999
▁Kdaj 999
šujemo 999
▁1993, 999
▁zaznati 999
▁medsebojnih 999
grami 999
vanca 999
▁odprte 999
▁privoli 999
▁poiz 999
▁1,3 999
▁Sod 999
▁ful 999
▁izpra 999
▁vložil 999
▁univerzi 999
▁GA 999
komur 999
▁razbra 999
▁športnega 999
▁moralno 999
▁nosilci 999
▁transporta 999
▁upokoje 999
rjevega 999
▁Kmetij 999
▁nastopajo 999
▁prenovo 999
▁celote 999
▁lastna 999
▁Mac 999
▁delam 999
▁avtomatsko 999
skla 999
▁odšla 999
▁Takšen 999
minu 999
▁3.5 999
▁rešuje 999
▁2011. 999
▁izboru 999
▁možnostjo 999
▁grobo 999
pravna 999
▁nedolo 999
▁svetlobo 999
▁neome 999
▁individuali 999
▁nekomu 999
▁narodne 999
▁Egip 999
▁modri 999
▁plast 999
ndvajset 999
gradnji 999
▁SLOVENI 999
▁procesom 999
▁Vodo 999
ree 999
▁presojo 999
▁arhitektu 999
pič 999
▁dola 999
▁muzeja 999
▁procesih 999
The 999
▁nikdar 999
▁pozval 999
kelj 999
▁prevzeti 999
ssion 999
▁zmanjše 999
▁imenovana 999
▁izgradnje 999
▁predstava 999
▁konvencije 999
▁povzročilo 999
▁industrijske 999
▁83 999
▁dvorane 999
▁nekakšno 999
žnikov 999
▁zavrnil 999
▁zanimivih 999
▁podpredsedni 999
▁pogon 999
▁najuspeš 999
▁PR 999
▁Nogo 999
ritmeti 999
▁vodnih 999
▁razmerjih 999
▁vratu 999
▁mandatu 999
▁testiranja 999
▁Ya 999
govod 999
▁vonj 999
▁integracije 999
▁mentor 999
▁sramo 999
▁Speci 999
▁privr 999
▁pojasniti 999
▁preprosta 999
▁materialne 999
▁opravijo 999
▁negativen 999
▁kazenskega 999
▁dandanes 999
▁klasično 999
▁Mag 999
▁centralne 999
▁pristojnost 999
▁koloni 999
▁izražanje 999
▁opredeljena 999
janja 999
▁Ljube 999
▁Dnevnik 999
▁Ustavno 999
▁signala 999
▁poskrbela 999
▁0,9 999
rem 999
gledal 999
▁profil 999
▁atmos 999
▁sezona 999
▁glasovali 999
▁ponovitev 999
▁Ogla 999
▁označil 999
tha 999
▁teles 999
▁obiskovalce 999
▁fleksibi 999
und 999
kasneje 999
▁pojmov 999
▁lokalnega 999
ibid 999
▁uve 999
▁Dokler 999
▁manager 999
9), 999
▁varne 999
html 999
▁korakov 999
▁nog 999
▁petnaj 999
rediti 999
▁stopenj 999
▁določenim 999
▁koreni 999
▁Starši 999
▁stavek 999
lida 999
▁fla 999
▁vadbo 999
▁pogreša 999
II 999
▁Cro 999
▁rednih 999
▁odstotkih 999
▁1,6 999
▁napade 999
▁kapi 999
▁ultra 999
▁hladno 999
▁dam 999
▁Barbara 999
▁neposrednih 999
▁Aloj 999
▁porek 999
▁zapolni 999
▁spodnjem 999
rnica 999
▁dejanske 999
▁podjetnik 999
Kaj 999
▁Koz 999
▁Odločitev 999
bus 999
▁dobičko 999
▁preživeli 999
▁primanjkljaj 999
linu 999
▁Ameriški 999
▁81 999
▁Ves 999
▁zavezanec 999
▁srednja 999
▁potrjujejo 999
▁LP 999
▁rodi 999
▁storitvah 999
▁usmerjeni 999
▁Prešerno 999
▁najvišja 999
življe 999
rl 999
MER 999
klopi 999
▁Sredi 999
▁listine 999
▁instrument 999
▁pretoka 999
▁Mojca 999
▁alar 999
▁kategorij 999
▁programski 999
▁Rea 999
▁Ele 999
▁faši 999
kanju 999
▁avtomat 999
tui 999
▁pravoko 999
SUS 999
▁filmski 999
▁16: 999
▁vložila 999
▁Prednosti 999
▁Cal 999
gijo 999
▁Verja 999
▁zgled 999
2- 999
lor 999
▁pola 999
stanje 999
▁protesti 999
▁Boži 999
▁reprezenta 999
▁naročilo 999
ljak 999
▁funda 999
▁Zagrebu 999
▁Policija 999
▁Stori 999
7), 999
▁MB 999
▁Eva 999
▁Vsem 999
▁deklet 999
▁konfli 999
▁spoznati 999
chu 999
▁”. 999
▁rodila 999
▁oglas 999
▁vsakič 999
win 999
▁morebitno 999
▁Jugoslaviji 999
▁rdečo 999
▁spomina 999
▁trgovanje 999
▁največjega 999
▁tab 999
dič 999
▁tretjina 999
njevanje 999
▁poskušala 999
▁ocenjevanju 999
▁pripomočkov 999
▁ustvarjalnosti 999
▁reklama 999
▁spremljati 999
cor 999
▁ber 999
▁nebi 999
▁obiskali 999
▁(%) 999
▁glej 999
▁rasto 999
▁svobodno 999
Naj 999
▁Ivana 999
▁konkurenčno 999
▁reviji 999
▁rdeča 999
▁zameno 999
▁mladosti 999
▁rezultatih 999
▁deforma 999
▁gasilci 999
▁Slovenec 999
▁poudarkom 999
▁emisij 999
▁srečal 999
▁zamenjavo 999
▁seme 999
ung 999
▁trajalo 999
▁okoljske 999
▁uspešnega 999
▁napovedujejo 999
▁svetniki 999
▁Fin 999
▁Naloga 999
diha 999
▁usmerjen 999
foto 999
▁triko 999
ranosti 999
▁mišic 999
▁dopusta 999
▁dogajajo 999
vnic 999
▁zneska 999
▁lastništva 999
▁DS 999
▁obrt 999
Vir 999
▁kombinacije 999
▁Struktura 999
dež 999
▁Gri 999
▁kompleks 999
mal 999
▁sorod 999
▁Družbe 999
▁vodij 999
pravami 999
▁Cerkve 999
▁ulicah 999
▁osrednje 999
▁Opredelitev 999
▁postavljajo 999
čarji 999
▁povedo 999
šir 999
▁Dobra 999
ološke 999
▁prevzeli 999
▁Die 999
▁spora 999
▁izkazala 999
▁Poznamo 999
▁pričela 999
jevo 999
panje 999
▁konj 999
▁neupravi 999
▁odkrivanje 999
▁spremenijo 999
▁we 999
▁vozo 999
▁brezži 999
▁menimo 999
▁notranja 999
▁organizacijami 999
▁2013. 999
▁članicami 999
VANJE 999
▁gospodu 999
letnem 999
▁dizel 999
▁krepko 999
▁tretjino 999
▁uporabljen 999
▁vpe 999
▁sodelujočih 999
▁izpostavljeni 999
▁aktivnega 999
▁zdijo 999
▁prečka 999
▁Pomemben 999
▁dimenzija 999
jim 999
zami 999
snila 999
▁(10 999
▁Sava 999
▁nakla 999
▁Zakonu 999
▁paziti 999
▁tolikš 999
/9 999
▁potrditi 999
▁voditelj 999
▁volilne 999
▁pripravljeno 999
▁tradicionalne 999
▁sodno 999
▁znake 999
▁naučili 999
▁priporočljivo 999
▁Para 999
Ha 999
NALI 999
▁demokrat 999
▁organizacijska 999
▁Loga 999
▁literaturo 999
▁UVOD 999
▁odpravil 999
▁kakorkoli 999
▁Gradec 999
Ob 999
▁Plo 999
▁veča 999
▁stroških 999
šnost 999
▁vplive 999
▁nastopom 999
limo 999
▁Ken 999
▁alumi 999
▁želod 999
▁Mateja 999
▁značilen 999
▁strateški 999
▁komponenta 999
gradi 999
▁zgradbe 999
▁slej 999
▁šved 999
▁ustrezajo 999
▁potencialno 999
▁razlage 999
▁fik 999
▁”, 999
▁energetsko 999
▁nasprotuje 999
▁diza 999
▁mogoča 999
▁Jack 999
▁Naši 999
▁povečano 999
▁vodni 999
njam 999
▁bankah 999
▁udeležence 999
▁rake 999
KP 999
varno 999
ZE 999
▁100, 999
▁jekla 999
▁pijače 999
▁zapravi 999
▁Ajdov 999
▁pedagogi 999
tta 999
▁kanal 999
▁uvrstil 999
▁povezati 999
▁Arhi 999
▁navodi 999
▁organizirano 999
8), 999
sak 999
▁Tehni 999
▁vezana 999
▁Opti 999
▁sedel 999
▁(197 999
▁poznali 999
▁Hel 999
▁You 999
▁upi 999
▁gradbenega 999
▁planiranje 999
▁dobiš 999
▁Giba 999
▁ostre 999
▁datotek 999
▁izkušnjah 999
skop 999
▁starem 999
▁zahodno 999
KU 999
▁Ac 999
▁OECD 999
▁trgovanja 999
▁com 999
▁nastavitev 999
▁hetero 999
▁odhodkov 999
uri 999
▁masi 999
▁krogih 999
▁vključene 999
sr 999
čenjem 999
▁sindikati 999
▁šči 999
▁odten 999
▁čezme 999
▁krivde 999
▁Prehajamo 999
▁magistrskega 999
njaka 999
▁regij 999
▁vidne 999
▁izbrana 999
▁samozave 999
▁zavestno 999
jočim 999
bližno 999
▁Gospa 999
▁prestopi 999
▁pridobitve 999
▁predstavljali 999
▁reki 999
▁pisatelj 999
▁naslednjega 999
▁podala 999
▁razširi 999
▁vzporedno 999
▁četrtletju 999
▁bori 999
vki 999
▁Mene 999
▁pošto 999
▁čebela 999
▁Afganista 999
jaka 999
▁Atlan 999
▁Glasbe 999
▁delodajalcev 999
▁ugra 999
▁navodil 999
NJA 999
▁peri 999
▁nis 999
▁semina 999
▁obnavlja 999
zbe 999
▁hero 999
▁uradne 999
▁krvni 999
▁steklo 999
▁Institu 999
▁84 999
▁30- 999
teljice 999
▁intenzivne 999
▁elektrike 999
▁morebitni 999
▁komunikaciji 999
rskem 999
▁dragi 999
▁2- 999
geni 999
▁občanov 999
▁odhodki 999
▁presoje 999
▁nepredvid 999
▁razporeje 999
▁tradicionalnih 999
▁dnu 999
▁poročanja 999
▁izračunamo 999
▁35, 999
▁hre 999
▁asoci 999
▁srednjega 999
▁Društva 999
▁Beogradu 999
▁poročanje 999
▁navsezadnje 999
▁zagon 999
▁Raziskave 999
▁pomembnejših 999
sre 999
▁žoge 999
▁rodu 999
▁pisme 999
▁prostorsko 999
▁posnema 999
▁enakosti 999
▁tožilstvo 999
▁akcij 999
▁cele 999
▁rdeči 999
▁...). 999
▁oprav 999
▁sadje 999
▁q 999
▁Lenda 999
▁športna 999
▁zaljublje 999
▁tehnološki 999
▁revoluciona 999
sovo 999
ktivna 999
▁otoku 999
rjenjem 999
▁storila 999
▁79 999
tiko 999
▁Loj 999
▁seja 999
▁vojski 999
▁odce 999
▁Črni 999
▁gladko 999
▁specifičnih 999
▁klop 999
loka 999
kljub 999
▁izplača 999
▁Kom 999
▁plačujejo 999
▁1500 999
žim 999
zmov 999
▁Omogo 999
▁poteh 999
▁uživajo 999
čišče 999
▁zaku 999
▁menil 999
▁ukrepih 999
▁analizirali 999
▁grozi 999
/3 999
▁domača 999
▁Lea 999
▁100.000 999
▁režima 999
▁starša 999
▁Twi 999
▁podrob 999
▁drugačnih 999
▁vztrajno 999
▁opremi 999
▁kadrovske 999
▁trajala 999
▁napisano 999
▁raba 999
sovi 999
▁Ara 999
▁blazi 999
▁naselij 999
▁produktivnosti 999
▁Sv 999
▁6.3 999
▁vplival 999
▁izboljšanju 999
▁DR 999
▁preproste 999
▁hibri 999
▁bistvene 999
▁hiper 999
▁evalva 999
▁kvaliteta 999
fil 999
tnike 999
▁Omeni 999
▁zadošča 999
▁kamere 999
▁odstop 999
cri 999
▁razberemo 999
▁2). 999
▁električni 999
▁podjetniki 999
▁tradicionalni 999
▁vplivali 999
burgu 999
▁privilegi 999
▁ogenj 999
▁segajo 999
▁menjave 999
▁preprič 999
▁zunanja 999
▁zamenjali 999
vodi 999
▁teoretično 999
▁razpravljali 999
kani 999
▁Uroš 999
▁dvajse 999
▁10- 999
▁vsakim 999
▁Ok 999
siness 999
▁rezultatom 999
▁Cene 999
▁generalnega 999
novega 999
▁reflek 999
▁nastavitve 999
gma 999
▁Kamnik 999
▁denarno 999
▁glasno 999
▁utegne 999
▁odgovorne 999
▁naci 999
▁panogi 999
vniku 999
▁jadra 999
▁disciplini 999
▁lokalna 999
▁Francije 999
▁načrtujejo 999
▁86 999
▁Tel 999
▁najdete 999
▁odpadke 999
▁evidence 999
▁kvalifikacijah 999
hanje 999
▁Kovač 999
▁obupa 999
▁Župan 999
jk 999
▁87 999
▁Unije 999
▁realnost 999
loško 999
▁ponudila 999
škom 999
▁vzgaja 999
▁Priprava 999
▁tiskovni 999
▁1). 999
▁močni 999
▁dodatki 999
mber 999
▁prived 999
▁subven 999
▁prilogi 999
▁ženskah 999
▁vaj 999
▁izjava 999
▁čimprej 999
▁ponudnik 999
splo 999
▁opravljali 999
▁Celj 999
▁Grafikon 999
▁okriljem 999
▁parametri 999
▁Njihov 999
vimo 999
▁oglasov 999
▁rezerve 999
▁shranjevanje 999
STE 999
▁1.4 999
▁Njegovo 999
▁sprašujem 999
parati 999
▁derbi 999
▁zbornica 999
▁neum 999
▁tari 999
▁komunikacijske 999
▁dikta 999
▁utrje 999
▁domnevno 999
▁potaplja 999
▁ˈ 999
▁nizu 999
▁primerjati 999
▁bogata 999
▁zgodovinski 999
▁vidikov 999
▁šolstva 999
▁trenutka 999
▁informacijami 999
▁Glej 999
▁new 999
▁pnevmati 999
▁bojijo 999
▁uspešnih 999
▁časovnih 999
▁truda 999
▁individualne 999
▁nadzira 999
▁najhitrej 999
▁količini 999
▁povabili 999
▁predstav 999
▁prihodnjega 999
▁konflikt 999
stel 999
▁Fra 999
predje 999
tional 999
▁Špor 999
▁dosedanji 999
▁kakih 999
stavljena 999
**** 999
▁agencij 999
▁kmetijsko 999
▁Hrvati 999
▁popraviti 999
▁pripoveduje 999
▁računalniške 999
▁Žu 999
tnemu 999
▁Gene 999
CP 999
-201 999
▁znanstvenih 999
vizor 999
vojni 999
rele 999
tner 999
DU 999
▁Horvat 999
▁obljublja 999
▁strateške 999
▁VA 999
▁časovne 999
CH 999
▁VZ 999
▁opazovanje 999
jaki 999
ralni 999
▁samoume 999
▁Pomembna 999
▁liberali 999
▁motoci 999
▁samozavest 999
▁gostu 999
▁91 999
brom 999
▁Prve 999
▁čemur 999
▁manjšine 999
▁avan 999
▁bog 999
šitve 999
▁količin 999
▁prostorni 999
▁HP 999
▁cela 999
▁popoln 999
▁postaj 999
▁pozabili 999
▁ese 999
▁kmetje 999
▁Istra 999
▁zapad 999
▁ravnotežje 999
▁nagrajevanja 999
ŠKI 999
▁191 999
resni 999
▁težke 999
▁Ustave 999
▁konfigu 999
▁angleški 999
▁navdušen 999
▁ospredje 999
zve 999
▁Stari 999
▁prepe 999
tnostjo 999
▁komiten 999
▁namestitev 999
▁spri 999
fija 999
▁...« 999
▁Države 999
▁sedemdesetih 999
via 999
▁kruha 999
žnja 999
▁Značil 999
▁dobite 999
▁francoska 999
zla 999
▁umrlo 999
njenosti 999
▁obravnavamo 999
Pred 999
▁ustanovil 999
▁samostojne 999
stičen 999
▁vzhodno 999
▁diplomski 999
▁predal 999
▁aktivnostih 999
▁delničarjev 999
▁uporabljene 999
▁predol 999
▁pozabil 999
▁zgornje 999
▁morebiti 999
▁san 999
▁čistega 999
▁različice 999
▁Martina 999
▁napadi 999
▁računu 999
▁pridobivanju 999
▁Cel 999
▁prestra 999
šle 999
▁pomagamo 999
▁zgleda 999
▁opore 999
▁socialnem 999
▁dolgem 999
▁zanesljivost 999
▁pritožbo 999
▁Konji 999
bek 999
▁tolma 999
▁vodne 999
▁sopo 999
▁izvor 999
▁Vloga 999
▁ugleda 999
▁veselja 999
▁zapor 999
▁urejen 999
▁nadaljevati 999
▁Nima 999
▁Zmago 999
▁Direktor 999
▁veterinar 999
▁zamenjati 999
▁prestolnici 999
▁izhod 999
▁spekta 999
▁zbirajo 999
▁2006. 999
▁Razen 999
▁igno 999
▁Srednje 999
▁igranje 999
▁zakle 999
▁komunikacijskih 999
▁direktive 999
jitve 999
▁sesa 999
▁Kakšna 999
▁Materi 999
▁znajde 999
▁negotovosti 999
▁UV 999
▁držijo 999
▁pustimo 999
▁1,4 999
▁izhodiš 999
▁nizozem 999
▁prostorske 999
▁izlet 999
▁bonite 999
▁uživanje 999
▁protokola 999
▁priskr 999
▁sodiščem 999
klav 999
▁Izvr 999
▁negi 999
▁Skupno 999
▁posplo 999
pija 999
▁pripoved 999
▁92 999
▁razdalja 999
▁likvidnost 999
▁političnem 999
▁Sever 999
▁dobilo 999
▁omejuje 999
▁er 999
▁izvajamo 999
▁klasičnih 999
▁spoštovati 999
▁IKT 999
▁bližje 999
▁-1 999
▁dopusti 999
▁prenosu 999
▁{ 999
▁beguncev 999
▁ista 999
▁indeksa 999
▁televizijo 999
▁Spremembe 999
▁duh 999
▁teste 999
▁pomembnejše 999
▁USD 999
▁oporo 999
▁dvoji 999
▁sestava 999
▁preteklem 999
▁AV 999
.2010 999
▁Dejan 999
▁ledu 999
▁ravnanju 999
▁računalniku 999
▁Preko 999
▁bliža 999
▁negativni 999
▁leže 999
▁porazdelitev 999
▁produktivnost 999
▁34, 999
redne 999
znim 999
▁kralj 999
▁kolena 999
▁najema 999
▁preprečevanju 999
▁Rusijo 999
▁obveznic 999
▁proizvode 999
▁Kol 999
▁telesna 999
▁psihiatri 999
▁spreminjanja 999
▁cepi 999
▁omi 999
▁kamero 999
pak 999
▁zadosti 999
▁Ah 999
▁otok 999
▁vidiš 999
▁Zadnje 999
▁razgiba 999
greš 999
▁verjamejo 999
▁Vra 999
▁kleti 999
▁podati 999
▁portala 999
▁opazovanja 999
peljali 999
▁Nasprotno 999
bioti 999
stein 999
▁Resni 999
▁kondi 999
▁kratke 999
▁SKLE 999
▁sklice 999
gue 999
▁kodo 999
▁kratkih 999
▁laser 999
▁mesti 999
▁iskreno 999
▁zastonj 999
▁ukvarjali 999
▁pisati 999
▁deklice 999
way 999
▁Rade 999
genciji 999
▁enostavna 999
▁tehnološke 999
▁Ide 999
▁interakcije 999
▁dvajsetih 999
▁inštituta 999
dova 999
cionalnega 999
▁okoljskih 999
▁dolžini 999
▁jasne 999
▁naja 999
▁trajanje 999
▁energetske 999
▁tehniki 999
▁globalni 999
▁knjigovod 999
▁razv 999
▁pripeljala 999
čanom 999
▁kisika 999
▁kulinari 999
▁temeljno 999
▁nadaljnjih 999
tani 999
▁Sprva 999
▁končalo 999
▁ugotovljeno 999
▁Sti 999
▁brona 999
▁izdatkov 999
▁predavanja 999
▁Dober 999
▁bivše 999
▁Telekom 999
▁Posledica 999
▁izravna 999
▁občutke 999
▁3). 999
▁Slovence 999
▁odigrali 999
▁pojavile 999
▁homoseksu 999
rjenost 999
▁zdravstvenem 999
sl 999
▁37, 999
▁Zase 999
▁volja 999
▁obvladovanja 999
lična 999
▁Alp 999
▁Alja 999
▁kazenskem 999
▁pravici 999
▁avtomobile 999
▁deter 999
▁filme 999
hala 999
▁Križa 999
▁betona 999
▁urednik 999
▁preteklo 999
▁zemljišče 999
▁Bole 999
▁rešil 999
▁mišljenje 999
▁organizator 999
JET 999
▁današnjih 999
▁avstrijski 999
ZZ 999
▁podvi 999
▁zdravstva 999
▁medsebojne 999
▁znašli 999
▁Pote 999
▁letna 999
▁Podobni 999
▁udeležil 999
▁juli 999
▁ločimo 999
krip 999
▁vsakrš 999
▁dvorana 999
▁VS 999
▁pametno 999
▁predsod 999
▁modula 999
▁žle 999
▁My 999
rjevem 999
▁obno 999
▁topo 999
znosti 999
▁Lou 999
▁HT 999
▁tipov 999
vis 999
▁SS 999
▁cikla 999
▁podce 999
rci 999
deti 999
▁zrca 999
▁Fri 999
▁Precej 999
▁lokacijah 999
▁sprejmejo 999
▁Wol 999
▁Miran 999
▁modul 999
▁rezultata 999
zala 999
▁osebami 999
▁prilagajanja 999
▁Lov 999
▁1999). 999
▁televizija 999
▁materialno 999
▁vključevanja 999
▁prosta 999
varu 999
▁tedne 999
▁nepopo 999
▁industrijskih 999
▁vložiti 999
▁obdol 999
▁zaslon 999
▁pokrovi 999
▁trenutkih 999
cki 999
jšim 999
▁nepreki 999
▁pti 999
▁oblikovala 999
▁neugo 999
▁zahtevek 999
▁mra 999
▁Rusije 999
▁Vre 999
▁out 999
▁čreve 999
▁harmoni 999
▁klasični 999
▁televizijskih 999
▁Pora 999
▁Der 999
▁leka 999
▁premagala 999
rku 999
▁36, 999
▁rock 999
▁vzdrž 999
▁ravnati 999
▁železa 999
▁Aleksand 999
▁priorite 999
▁boli 999
lizem 999
▁razgle 999
▁povečanju 999
▁dnevne 999
▁Komisije 999
▁debeli 999
baj 999
▁kul 999
▁referendumu 999
▁Zor 999
mlada 999
▁Clin 999
▁Okoli 999
▁pomladi 999
Av 999
nder 999
▁konje 999
▁Poglejte 999
▁dosedanjih 999
▁medicinskih 999
▁Alex 999
▁Trener 999
▁prenesti 999
logo 999
▁Recimo 999
▁dovoljuje 999
▁podpor 999
▁Nasta 999
▁živela 999
▁trdnost 999
▁poku 999
▁zauži 999
▁nakupom 999
▁modelom 999
▁predstavnike 999
▁Afriki 999
▁sceno 999
▁rezervo 999
stin 999
▁vnu 999
▁nizkih 999
▁Agencija 999
▁življenjska 999
▁zid 999
▁podatka 999
▁trgovin 999
▁avtoceste 999
▁desetletju 999
Kot 999
▁izobraževalne 999
▁Sliki 999
▁množica 999
▁Obstajajo 999
▁mreži 999
▁hrvaške 999
▁plačali 999
▁zaslugi 999
▁MED 999
▁kvalifici 999
jke 999
▁40. 999
▁spelja 999
▁zavedanje 999
▁pokojninskega 999
▁Tor 999
fom 999
niz 999
▁deko 999
▁SMS 999
stvenih 999
▁nogometne 999
▁namenila 999
ČNE 999
▁...) 999
▁navedenega 999
list 999
▁usodo 999
▁mladega 999
▁digitalni 999
▁specifično 999
tch 999
▁njiju 999
▁znašla 999
▁šolanja 999
znice 999
▁bitje 999
▁strmo 999
▁izračunali 999
▁000 999
tvo 999
▁1,8 999
gorja 999
▁tisoča 999
▁sprožil 999
▁zahtevna 999
▁Predstavitev 999
obla 999
▁ohladi 999
▁vmesnika 999
▁brati 999
▁sestave 999
▁stalnega 999
▁Eko 999
▁Pho 999
▁Sne 999
genda 999
▁zobo 999
▁folklo 999
▁ugodne 999
žjega 999
▁listu 999
▁edinstve 999
▁počutijo 999
▁Učinkovi 999
▁starostni 999
▁planiranja 999
▁Mobi 999
▁predlagatelj 999
deva 999
▁dneve 999
▁nasel 999
▁Nina 999
▁filmi 999
jevanje 999
▁spremljanja 999
▁evolu 999
▁meter 999
▁HE 999
▁pišejo 999
▁slabost 999
▁vozniki 999
▁struktur 999
▁intervjuju 999
vljanje 999
▁štejejo 999
▁revščine 999
▁uvedba 999
inter 999
▁sklepu 999
▁dosežek 999
▁desetimi 999
▁materiale 999
▁predlagamo 999
▁privoščiti 999
TOR 999
▁dirko 999
▁tržišču 999
▁odstopanja 999
▁sov 999
▁smel 999
▁Marsi 999
▁moderne 999
▁Vlado 999
žke 999
▁pustila 999
▁Mati 999
▁2014. 999
▁Saraje 999
▁inštitut 999
▁kadra 999
▁sodišč 999
▁European 999
lum 999
▁pravkar 999
▁tehnoloških 999
▁Kara 999
▁1992, 999
▁zaključi 999
▁97 999
▁izgub 999
▁alpini 999
▁razpro 999
▁presoji 999
▁grafično 999
▁trenutke 999
hodov 999
▁zaže 999
▁sopro 999
▁pomagalo 999
▁upoštevanje 999
▁38, 999
▁temat 999
▁zasledimo 999
▁standardni 999
▁[1 999
▁doseganja 999
▁veleposla 999
▁doča 999
▁prizo 999
▁kakršna 999
▁vprašali 999
▁gospodinjstev 999
lami 999
▁Eki 999
▁kredita 999
▁zahtevno 999
▁dim 999
▁praši 999
▁klimat 999
▁dostopna 999
▁dohodnine 999
vode 999
▁definicijo 999
▁Šol 999
▁karier 999
▁naselju 999
▁opredelimo 999
▁Kolo 999
▁golo 999
▁poslop 999
▁ugotavljali 999
▁World 999
▁inovacij 999
▁izvedenih 999
▁odvr 999
▁raziskovanju 999
▁pravu 999
▁01 999
lovec 999
▁odpadne 999
▁zagleda 999
▁znižala 999
▁najkasneje 999
▁vzroki 999
▁mejah 999
▁upravnem 999
▁Predstavlja 999
čba 999
▁umetno 999
▁sosednji 999
▁ŠO 999
arch 999
▁rizi 999
▁Težave 999
▁prineslo 999
▁Mul 999
▁odklon 999
▁bivali 999
▁(2000 999
▁vstopom 999
▁potrošnika 999
jočimi 999
▁dokazal 999
tho 999
▁4,5 999
▁Obču 999
▁lažji 999
▁mostu 999
▁najstni 999
▁regionalne 999
▁Gal 999
▁nevarnih 999
▁PD 999
▁Obo 999
▁60. 999
▁tekmovalci 999
▁Josi 999
▁izbruh 999
▁pričel 999
▁živila 999
▁situacij 999
ges 999
▁deklara 999
▁ciljne 999
▁pomlad 999
▁društvu 999
narhi 999
▁opozicije 999
▁Pohor 999
▁resne 999
▁amandmajev 999
letje 999
▁Beli 999
▁bolečino 999
▁principu 999
▁sorte 999
▁Ska 999
▁boljših 999
▁vijo 999
▁umrla 999
▁revizijo 999
▁seznanjeni 999
▁premik 999
▁Avstrijo 999
▁napredovanja 999
▁istih 999
▁čakali 999
▁toleran 999
▁tradicije 999
▁znamo 999
▁Kakšen 999
sso 999
▁Domžale 999
▁obleko 999
▁sprejete 999
▁programskih 999
▁tisk 999
▁zvr 999
▁Tovr 999
▁enost 999
▁obrazu 999
▁ozemlje 999
▁vojaškega 999
▁lotil 999
nejšimi 999
▁93 999
▁tajni 999
▁izdali 999
▁nesrečo 999
▁popolni 999
▁2004. 999
▁Kontro 999
▁govorice 999
▁Vodstvo 999
▁(1, 999
▁Kali 999
▁tujem 999
▁razstava 999
▁preživela 999
▁programska 999
▁MP 999
▁koža 999
▁Pomaga 999
▁rojstvu 999
▁USB 999
▁Kaza 999
▁Skupna 999
▁računalniških 999
▁sprem 999
grama 999
▁obvestil 999
▁zakonski 999
▁proste 999
▁prestop 999
▁sind 999
▁Prekmu 999
▁urejene 999
▁prepozno 999
▁kabel 999
▁Najviš 999
▁plus 999
tivni 999
▁ekonomskega 999
▁kupila 999
▁rokami 999
upanje 999
▁prost 999
▁Ljubljanski 999
.20 999
▁FA 999
▁Nara 999
▁kara 999
pene 999
▁zavrača 999
▁vrhunski 999
TR 999
▁vitami 999
▁hrbet 999
▁vezane 999
šec 999
▁190 999
▁medose 999
▁Rusi 999
▁zahodu 999
▁zasebnem 999
▁opravljena 999
▁raziskovalnih 999
▁poglede 999
▁današnjega 999
▁potrebujete 999
▁izdelan 999
▁proceso 999
▁sosednjih 999
▁včerajšnji 999
▁usmerjenost 999
▁125 999
▁poletnih 999
▁telefoni 999
dimenziona 999
▁našimi 999
bita 999
▁gnoji 999
ljenega 999
▁subjektov 999
▁organizacijski 999
▁2005. 999
▁17: 999
rojen 999
▁tehta 999
▁odpravila 999
dvo 999
vojo 999
▁enti 999
▁kakršnega 999
▁Seba 999
▁sekreta 999
▁nai 999
▁Grosu 999
▁navad 999
▁odlične 999
▁uvrščamo 999
▁uporabljeni 999
▁svoboda 999
▁350 999
▁slabša 999
▁revizije 999
▁termin 999
▁vidike 999
▁dopolnitev 999
▁postavljen 999
▁impro 999
▁dodatkov 999
hla 999
▁izpod 999
▁predsed 999
▁Parti 999
▁ljubo 999
▁prodal 999
▁trgovci 999
▁1991, 999
▁Južni 999
▁regija 999
▁investicijskih 999
▁spodbujati 999
▁kultur 999
▁fizični 999
▁prireditvi 999
dane 999
▁ozadje 999
vidnosti 999
▁novica 999
▁odstopil 999
▁VR 999
▁seštev 999
▁december 999
▁proizvodne 999
eld 999
▁spodnje 999
▁ženskami 999
▁neve 999
▁koles 999
▁dvojno 999
▁stopila 999
▁ljudstvo 999
▁odhodom 999
▁Maksi 999
▁duševno 999
▁radoved 999
▁počnejo 999
▁by 999
▁smeh 999
Vo 999
▁pripravijo 999
▁zmogljivost 999
▁raziskovalne 999
▁šef 999
▁Gan 999
sovali 999
▁pripomb 999
▁Internet 999
▁metodami 999
▁duhu 999
▁with 999
▁črto 999
▁pijač 999
▁minilo 999
▁veje 999
▁tablet 999
▁spoštovani 999
▁toba 999
▁Murska 999
ata 999
▁Poso 999
▁redki 999
▁stanjem 999
▁zastavljenih 999
▁svetovalec 999
▁zmanjšujejo 999
▁DVD 999
▁Luke 999
gio 999
▁medija 999
voljstvo 999
▁Hrvaški 999
car 999
▁NSi 999
▁sigu 999
▁grožnje 999
▁Investi 999
▁notri 999
▁komite 999
▁skladbe 999
▁potrje 999
▁EK 999
▁PL 999
▁meseci 999
▁Jur 999
▁prvimi 999
▁reform 999
časne 999
▁obleke 999
▁izpostaviti 999
odlo 999
▁202 999
▁Vzrok 999
▁glava 999
▁tekstu 999
▁takšnim 999
▁Paki 999
▁roba 999
▁nezadovoljstvo 999
▁organiziranosti 999
▁ČE 999
▁dioksi 999
▁otroške 999
▁pravnomo 999
▁dobrem 999
▁sklepe 999
odstotna 999
▁dobrodel 999
▁napisali 999
▁odpeljal 999
▁aluminija 999
▁obveznice 999
▁infrastruktura 999
▁(3) 999
▁podpisali 999
▁strehe 999
▁likovne 999
▁Naslednja 999
▁spoznavanje 999
lea 999
▁svetle 999
▁GS 999
▁nevarne 999
▁dostopne 999
▁odstotke 999
▁ukvarjal 999
▁negativna 999
zbo 999
▁medijske 999
▁Pravilnik 999
▁DeSUS 999
▁Zgodba 999
▁varuje 999
▁Kitajske 999
▁boljšega 999
lene 999
dnevni 999
▁luksu 999
▁policist 999
▁državljanom 999
▁razo 999
▁(9 999
▁NAJ 999
▁plačilu 999
▁Pau 999
▁vrstniki 999
▁membra 999
čevih 999
▁impul 999
▁izdaji 999
▁igralni 999
zdi 999
alnosti 999
nat 999
meren 999
▁pomerili 999
xt 999
DAR 999
rejanje 999
▁prvoliga 999
▁odkrito 999
▁izkoristil 999
pisal 999
urnal 999
▁Poziti 999
▁dnevnik 999
▁kohezi 999
▁sejmu 999
▁podobi 999
▁trenutne 999
▁sodnih 999
▁spopada 999
▁treninga 999
▁Palesti 999
▁tekmovanjih 999
ženim 999
▁..., 999
▁odigral 999
▁vloži 999
▁zunanjim 999
▁statističnih 999
stje 999
▁številk 999
▁diri 999
▁Italijani 999
▁prekinitev 999
▁spremenljivka 999
▁oke 999
▁Jernej 999
▁VSE 999
čanka 999
▁ANALI 999
▁neposrednega 999
▁UP 999
▁čiščenja 999
vencioni 999
▁sleher 999
▁emi 999
▁žar 999
▁zanemar 999
▁DP 999
zave 999
▁porast 999
▁preživeti 999
▁ZUP 999
tej 999
▁ekra 999
▁izgore 999
▁Dona 999
bljenega 999
▁oddelkov 999
▁tematiko 999
▁vol 999
▁Spra 999
hr 999
▁sodelovanjem 999
čico 999
▁avta 999
▁klime 999
▁torbi 999
▁zgodovinskih 999
▁korenine 999
▁linijo 999
▁računalniški 999
▁razkril 999
▁vzhodni 999
▁igralcem 999
▁RAZI 999
mujejo 999
▁april 999
▁izzive 999
▁otroški 999
▁hčeri 999
▁znanega 999
▁pristopom 999
▁preglednici 999
▁vot 999
varni 999
000,00 999
alnost 999
njakov 999
▁prera 999
▁Ostali 999
▁Prepričan 999
▁analizirati 999
▁Povzeto 999
▁motorjem 999
▁materialnih 999
ele 999
▁War 999
▁zbrani 999
▁različici 999
▁Projek 999
▁sledilo 999
zme 999
▁Ham 999
▁hidrav 999
▁antropo 999
▁dolgoročnih 999
▁likovno 999
▁ohranjanju 999
▁Kli 999
▁trage 999
▁revija 999
ziroma 999
▁enotni 999
▁postavljene 999
žujemo 999
▁upada 999
▁podružni 999
▁TUDI 999
ščenosti 999
dke 999
.199 999
▁prijazen 999
▁veleposlani 999
▁3) 999
▁radia 999
▁merili 999
▁pravimo 999
▁Publi 999
▁Zavo 999
▁jedra 999
▁junij 999
▁bistvenih 999
▁pridobiva 999
▁tekmovalcev 999
▁nobeno 999
▁pozicije 999
▁prilagoditev 999
▁vec 999
▁potom 999
▁partnerstva 999
▁iko 999
▁Druži 999
▁Izvaja 999
▁odločitvijo 999
▁izstre 999
▁dobavitelja 999
zamemo 999
▁hvali 999
▁odpusti 999
▁primanjkuje 999
▁Gosti 999
▁KD 999
dle 999
▁Tren 999
▁bližnje 999
▁dodobra 999
▁končana 999
▁povabil 999
3/ 999
nie 999
▁zabava 999
▁zadrže 999
▁PV 999
▁narisa 999
▁Zupančič 999
▁verba 999
▁ligo 999
▁mlad 999
▁unika 999
▁gorivo 999
▁vidite 999
▁zasede 999
▁snemanje 999
rić 999
sistem 999
▁čustvene 999
▁komunalnih 999
▁perspektive 999
▁pripomorejo 999
▁oran 999
▁sinhro 999
▁signali 999
▁pse 999
▁škof 999
▁uvoz 999
▁vidni 999
▁servisi 999
▁Izbira 999
▁niza 999
▁poma 999
▁zvezni 999
▁podana 999
▁voznikov 999
Slo 999
▁zmagali 999
▁francoske 999
▁ljubljanskem 999
lag 999
▁humo 999
▁media 999
▁nikomur 999
Jo 999
▁pevka 999
▁oznake 999
▁zastru 999
▁telefonov 999
▁športnikov 999
▁gospodinjstva 999
▁moško 999
▁širšo 999
▁pozdravlja 999
5% 999
rici 999
▁kavo 999
kate 999
▁Francozi 999
▁kupujejo 999
vizija 999
gami 999
▁Esto 999
anali 999
▁turbi 999
▁vrnitvi 999
▁proračunskih 999
▁Gale 999
▁iščemo 999
▁Razlike 999
▁razpisu 999
▁preizkuša 999
▁razčle 999
▁Poslovni 999
▁posteljo 999
▁populacijo 999
▁razpoloženje 999
▁kulturna 999
▁Grčija 999
▁vsakih 999
▁samostojna 999
▁pere 999
▁sindikata 999
▁pospeše 999
▁volji 999
▁zgornjem 999
▁inflacije 999
nia 999
▁pusto 999
▁predsedu 999
▁7.1 999
▁rastjo 999
▁posebnost 999
lomu 999
mela 999
▁Štiri 999
▁uporabna 999
▁urejanju 999
▁Oto 999
▁pojasnje 999
▁zajemajo 999
▁Pridoblje 999
▁nadmor 999
gujejo 999
▁deležem 999
▁garde 999
▁4). 999
▁Zveze 999
▁označili 999
▁nadpovpre 999
▁poravnave 999
▁obravnaval 999
▁Belgi 999
▁novic 999
▁vesela 999
▁omenjenem 999
▁opredelitve 999
▁(+ 999
▁Media 999
sander 999
▁Besedo 999
▁1,1 999
▁Bistrica 999
▁ustavili 999
činski 999
▁treningu 999
▁generacijo 999
▁zdravstvena 999
▁dvignil 999
litvi 999
▁Lojze 999
▁izsled 999
▁osvaja 999
▁obogati 999
▁poslovnimi 999
▁razporeditev 999
▁pripravimo 999
▁učinkovitega 999
▁znanstveniki 999
ln 999
▁18: 999
gospodar 999
▁policijskih 999
zoren 999
▁zmanjkalo 999
▁donosnosti 999
IV 999
zmo 999
▁udarec 999
stavljen 999
▁Ustvarja 999
▁razložil 999
▁produkcije 999
▁Vzgo 999
▁hči 999
▁pridi 999
▁opravljene 999
▁javnostjo 999
▁bančnega 999
▁evropskimi 999
▁natančnost 999
bon 999
▁politikov 999
▁vsebnosti 999
▁darila 999
▁dejanski 999
▁ID 999
▁čaj 999
▁Zagotovo 999
▁prenosni 999
vange 999
▁Izku 999
▁preostali 999
▁Pal 999
▁korektno 999
▁donosnost 999
▁Vas 999
▁objektu 999
▁nekdanjih 999
▁(18 999
▁strinjali 999
cionalizacije 999
cus 999
now 999
▁Topli 999
▁takim 999
▁kompromi 999
▁subjekt 999
▁Sim 999
▁steni 999
▁Mestne 999
▁podprla 999
▁opredeljujejo 999
rus 999
▁Območ 999
partma 999
▁higie 999
▁kader 999
▁določijo 999
▁sra 999
▁Hotel 999
▁Str 999
▁kadi 999
▁dvigne 999
▁Poročilo 999
▁Ugotavljam 999
▁učinkoviti 999
▁sovje 999
publiko 999
▁izboljšali 999
▁CRM 999
▁čutijo 999
▁navzven 999
▁5). 999
▁moškim 999
▁profesionalno 999
▁Oli 999
▁cikel 999
▁krei 999
mernega 999
▁šolanje 999
▁omogočilo 999
▁preprečili 999
▁uživali 999
▁Studi 999
▁mislili 999
berne 999
▁toplotno 999
▁navijačev 999
stimo 999
▁sklene 999
▁spolnih 999
▁kolegice 999
▁izpostavili 999
cionalnih 999
▁storitvami 999
▁Računa 999
▁globalne 999
fre 999
▁vladni 999
mus 999
▁kategorijah 999
▁bančne 999
▁vizije 999
vk 999
▁konso 999
▁slovenščini 999
imek 999
▁Madžarska 999
▁not 999
▁zadetek 999
▁sonca 999
▁hitrega 999
▁istospo 999
▁odlični 999
ney 999
▁poletja 999
▁ljubljanskega 999
▁športniki 999
▁dopolnil 999
ršič 999
▁5000 999
▁odločilno 999
▁dokazujejo 999
▁pišto 999
▁80. 999
▁sheme 999
▁teren 999
▁konferenca 999
▁nero 999
▁zeleni 999
▁pristopu 999
▁oken 999
▁aparat 999
▁tednom 999
▁Podatke 999
▁zanimivi 999
▁prodajalec 999
dajno 999
zy 999
▁sončne 999
▁nosilcev 999
▁trditi 999
▁izvolite 999
▁sprejemu 999
▁partnerje 999
▁zadostno 999
▁odri 999
▁primarni 999
▁zvezda 999
▁primarno 999
▁zadetkov 999
▁stadi 999
▁obnove 999
▁nasa 999
▁sklenila 999
▁prijateljem 999
▁Ozna 999
▁Ukre 999
▁postavljeni 999
▁suši 999
▁iskal 999
▁nadško 999
▁percep 999
gnilo 999
▁89 999
▁Odvi 999
▁izvirajo 999
fek 999
kopi 999
letij 999
▁soočajo 999
▁konservati 999
▁strel 999
▁SLO 999
▁nani 999
▁skušala 999
▁Švedska 999
▁mega 999
rjan 999
▁Izrae 999
▁poprej 999
▁srednješol 999
▁Nekoliko 999
▁Življenje 999
▁geno 999
▁zaprli 999
▁https 999
▁Yo 999
▁škro 999
▁dobile 999
▁fantov 999
▁zaprta 999
▁realnem 999
▁pogledal 999
grafski 999
ČNA 999
▁90. 999
▁vprašala 999
ming 999
razpo 999
▁poškodoval 999
▁uporabnost 999
▁uveljavljanje 999
grada 999
▁Miloše 999
rino 999
▁Podob 999
stavljeno 999
▁pojme 999
▁tisoče 999
▁NBA 999
ganje 999
▁Doku 999
▁izgovo 999
▁tabelo 999
▁Mesto 999
▁izpred 999
▁podatkovne 999
mb 999
▁Mihe 999
▁vul 999
drija 999
▁gume 999
varnost 999
▁resnica 999
▁sočasno 999
▁Bul 999
▁papirju 999
▁zmanjšanju 999
▁Don 999
▁prepreči 999
▁kulturnem 999
▁dopolnjuje 999
▁konflikta 999
▁naraščajo 999
▁peča 999
▁kuhar 999
▁premiera 999
▁Javni 999
pica 999
▁segment 999
▁vprašati 999
nkom 999
▁pozabi 999
▁kaznova 999
▁boža 999
▁obža 999
▁vremenu 999
▁polovice 999
▁prepričljivo 999
▁odpoto 999
RL 999
▁severni 999
▁dediščino 999
▁nah 999
▁baza 999
▁medijsko 999
▁mladine 999
▁kvalitati 999
▁Nov 999
▁Končno 999
▁maščobe 999
▁razmišljal 999
▁VP 999
▁40, 999
▁znesku 999
▁vsakdanjem 999
▁uresničitev 999
▁bioma 999
▁Čo 999
▁tekst 999
▁študentom 999
simo 999
▁dna 999
▁začr 999
▁energe 999
▁stavbo 999
▁posredovati 999
▁južni 999
▁naslovov 999
▁poslabša 999
▁zaključka 999
▁potrpež 999
▁Pona 999
▁odmak 999
▁stati 999
▁sedežem 999
▁londo 999
▁marec 999
▁tvoja 999
▁Tivoli 999
▁pospravi 999
▁očetov 999
sorp 999
▁70. 999
▁pioni 999
▁recikli 999
▁zgodnjih 999
▁statistične 999
dap 999
SKIH 999
▁Andro 999
▁kritik 999
▁naključno 999
▁uredbe 999
▁Informacije 999
▁potuje 999
▁mislite 999
▁nadaljnjega 999
▁vratih 999
enzi 999
▁udeja 999
▁stalne 999
▁blok 999
▁pristopov 999
▁kvalifikacij 999
▁Oko 999
▁Znotraj 999
▁svetuje 999
dionu 999
▁hitra 999
▁izzivi 999
▁Sodelovanje 999
▁94 999
▁paz 999
▁drama 999
▁stilu 999
▁makroekonom 999
zirala 999
▁Državnem 999
▁spodbude 999
▁19: 999
▁Fla 999
▁skok 999
▁Bernar 999
▁ministru 999
▁potencialne 999
karna 999
▁zdrža 999
▁Nada 999
▁jame 999
▁sedanjih 999
▁Deve 999
▁Kakovost 999
▁imenovali 999
▁tveganjem 999
nora 999
▁Zemlje 999
▁pohodni 999
▁Kru 999
tirane 999
▁izplačilo 999
jitev 999
▁nari 999
▁lokacija 999
▁prebo 999
sha 999
▁vključen 999
▁kalo 999
▁franši 999
▁nečesa 999
stavljanje 999
ire 999
▁Brežice 999
▁Aleksander 999
▁prinesli 999
▁malenkost 999
▁razširitev 999
▁predvidenih 999
▁perio 999
▁porno 999
▁vsota 999
▁Trigla 999
▁Jurij 999
▁nepogreš 999
▁glasovanja 999
vodni 999
▁trgi 999
▁dobiva 999
▁nalep 999
▁sestri 999
▁zajeti 999
▁delovali 999
▁frekvence 999
▁objektivno 999
▁transakcije 999
tirani 999
zana 999
▁Zmanj 999
▁dražlja 999
stiko 999
▁črke 999
▁kartic 999
▁pisarne 999
▁trajnostnega 999
terapev 999
▁dokaze 999
▁krajše 999
▁dozo 999
▁vplivu 999
▁faktorjev 999
▁Doslej 999
▁kredit 999
Vse 999
ses 999
▁prehitro 999
▁prehrani 999
reči 999
%20 999
coj 999
▁42, 999
▁zahodne 999
▁METO 999
ljivem 999
▁pretvori 999
▁promocije 999
▁Način 999
▁konzu 999
▁gotovi 999
▁obvestilo 999
▁Maro 999
▁podelili 999
sp 999
▁nimaš 999
▁regionalnih 999
▁užitek 999
HE 999
sey 999
▁priljubljena 999
ef 999
lovi 999
rečko 999
▁remi 999
▁2000. 999
▁nekam 999
▁čista 999
▁razumlji 999
Ju 999
▁Bon 999
▁vleče 999
▁dosežen 999
▁droge 999
▁nešte 999
▁albuma 999
▁cigare 999
▁Christi 999
▁spraviti 999
ščite 999
▁Nava 999
▁čakal 999
▁predlagajo 999
▁obrazložitev 999
▁Ravna 999
▁nosil 999
▁določanju 999
▁definicija 999
▁Janko 999
▁mehanizmov 999
▁nacionalna 999
▁opisu 999
▁Navede 999
▁deklica 999
funk 999
▁Gora 999
▁Srbija 999
▁napiše 999
▁parametre 999
▁grafa 999
▁smrtjo 999
▁odnosom 999
▁ekonomska 999
▁1989 999
▁nizki 999
▁račune 999
▁vzorcih 999
▁dostopni 999
▁amp 999
▁hekta 999
▁prošnjo 999
mala 999
▁spremljal 999
▁Dob 999
▁pišča 999
▁poteze 999
▁Eco 999
▁detekti 999
▁presegajo 999
zbi 999
▁Whi 999
▁klima 999
▁Poljska 999
▁dosežkov 999
▁bistvenega 999
▁okusa 999
▁anketo 999
▁dovoljenj 999
rejeno 999
▁izšel 999
▁veljala 999
▁strategiji 999
▁arhitekture 999
▁Fur 999
▁lastnim 999
▁Treb 999
▁podpisu 999
▁projektnega 999
▁udeležilo 999
sic 999
▁orožjem 999
▁omrežjih 999
▁pogledom 999
▁obele 999
▁okužbe 999
▁omejene 999
▁svojevr 999
▁ilega 999
▁jezeru 999
▁Časo 999
▁debelo 999
▁sproščeno 999
▁turistična 999
▁podjetništvo 999
▁kupcu 999
▁dosedanje 999
▁naki 999
▁divje 999
▁patri 999
▁pismu 999
▁organu 999
▁odstraniti 999
ČP 999
uvr 999
▁Zveza 999
▁zbere 999
▁posnel 999
▁mimogrede 999
▁20: 999
▁tea 999
▁psihično 999
▁šestdesetih 999
▁konsen 999
▁tehnologiji 999
hek 999
▁železnice 999
▁podatkovnih 999
▁nosilca 999
▁EV 999
▁stopa 999
tite 999
kovne 999
▁avtu 999
▁sprehod 999
▁dejanskega 999
▁lati 999
▁prezra 999
▁vladnih 999
▁pravilna 999
▁uslužbenci 999
cno 999
▁klubi 999
▁projektne 999
▁čl 999
▁mam 999
▁nasprotnika 999
▁italijanskega 999
▁vnet 999
mega 999
▁Iraku 999
▁Marka 999
▁uvodu 999
▁zbrati 999
▁poslanke 999
▁spoznanje 999
▁odredi 999
▁filmske 999
▁argument 999
▁Pomen 999
ventu 999
▁odhodu 999
▁pojasnilo 999
▁organizirana 999
▁otroških 999
tive 999
▁izjav 999
▁samostojnosti 999
zina 999
▁Jožeta 999
▁akterji 999
▁izmenjave 999
▁:: 999
zimo 999
▁kvar 999
▁sklica 999
ference 999
▁fizična 999
vnaj 999
▁KOT 999
rniku 999
▁Koša 999
tnikom 999
▁Mednarodni 999
▁fotografija 999
▁Dimi 999
▁Grčiji 999
▁prikrajša 999
▁finančnimi 999
▁kmetijstvu 999
▁upoštevanjem 999
▁hujša 999
▁kontekst 999
▁posamezen 999
▁potrebovala 999
UD 999
▁Logi 999
▁razložiti 999
▁ALI 999
▁najdra 999
čarja 999
▁James 999
▁muzeju 999
stranski 999
roni 999
▁žve 999
▁greš 999
▁preskr 999
▁skupščina 999
▁Liz 999
▁kan 999
gresi 999
ranem 999
▁nadaljujejo 999
plu 999
▁Škoda 999
▁deležu 999
▁eksi 999
▁Japonskem 999
”, 999
▁srečno 999
▁sekunda 999
▁zadostuje 999
▁prah 999
▁zidu 999
▁tekmovanj 999
▁prizadevajo 999
▁cestnem 999
java 999
kamo 999
▁uporabne 999
▁učnega 999
▁nastanku 999
▁posvetil 999
▁uprizori 999
▁mestno 999
▁aj 999
▁Blaž 999
▁milijoni 999
▁rešujejo 999
▁osnovnošol 999
▁6- 999
▁izvle 999
zgodovi 999
fikaciji 999
▁koko 999
▁žogi 999
▁poziv 999
▁viden 999
▁uporabno 999
▁kolikšni 999
▁nadomestil 999
▁kampanjo 999
▁mladoletni 999
▁veljavnosti 999
▁→ 999
tativno 999
▁poklical 999
stavljeni 999
▁Zavr 999
▁postavke 999
▁izpolnjujejo 999
qua 999
▁metu 999
▁poziva 999
▁lastnikom 999
▁preverjanju 999
ware 999
▁Pisa 999
▁soba 999
▁inciden 999
non 999
▁45, 999
▁Bratu 999
▁Jožef 999
▁Og 999
▁Odpr 999
▁polaga 999
▁Nizozemska 999
▁lako 999
QL 999
▁Male 999
▁Kralje 999
▁prireja 999
▁ekskluzi 999
▁produkta 999
solven 999
▁mestnem 999
▁tečajev 999
▁delavnic 999
▁argumenti 999
▁diploman 999
▁pridružila 999
▁Fili 999
vanem 999
▁krajine 999
▁neupora 999
▁dejavnostmi 999
▁Bele 999
▁Klasi 999
▁posebnem 999
▁tka 999
novih 999
▁plemeni 999
▁ženskega 999
darja 999
▁vlaken 999
▁upodobi 999
▁najmanjši 999
▁policijski 999
▁reprezentanci 999
▁institucija 999
nor 999
▁naleti 999
SKEGA 999
▁zvezdi 999
▁prostitu 999
▁prepoznati 999
▁AS 999
▁žli 999
žniku 999
▁marsikdo 999
▁posredovanja 999
▁karakteristike 999
čevega 999
▁cone 999
▁geslo 999
▁predpostavke 999
▁pav 999
▁predi 999
▁nedelja 999
▁pridrža 999
▁Dostopno 999
▁porabili 999
.25 999
▁el 999
▁zimo 999
▁vsoto 999
▁statistike 999
▁ZDR 999
▁ogledalo 999
sy 999
▁pal 999
▁obveznega 999
▁Velikokrat 999
▁sodnega 999
▁izračunu 999
▁podjetnikov 999
GB 999
.2012 999
▁izterja 999
▁Peru 999
▁ustavne 999
▁september 999
čenem 999
▁atmosfe 999
▁pogovore 999
Bu 999
▁(3, 999
teljih 999
▁moneta 999
▁zdavnaj 999
▁potekale 999
▁čela 999
▁Luksem 999
▁podpisala 999
▁Pomanj 999
▁razmeram 999
NP 999
KLJU 999
▁cestnega 999
▁navedena 999
▁primernih 999
▁Zah 999
▁regresi 999
▁računalnikom 999
▁diskre 999
▁enostra 999
▁pravljice 999
▁menoj 999
▁manife 999
▁agencijo 999
denj 999
▁pojavov 999
▁nasprotu 999
▁denarnega 999
▁zle 999
snili 999
metaši 999
▁šu 999
▁rastejo 999
gode 999
▁Kal 999
▁dokazi 999
▁sedežu 999
čevar 999
▁državnim 999
▁nadomešča 999
▁ogrevanja 999
▁dnem 999
▁avstra 999
▁35. 999
▁tržna 999
▁zgodnje 999
▁plačilni 999
▁zdravega 999
▁posvetili 999
kovim 999
▁Tabeli 999
▁izredne 999
▁konkurenčnih 999
▁sklepom 999
▁pripomočki 999
▁realizacijo 999
▁RI 999
▁Sco 999
bour 999
mail 999
▁ode 999
▁celovite 999
▁izpolniti 999
▁pričakujem 999
▁raziskovalni 999
BOR 999
TEK 999
▁avdio 999
▁sanita 999
▁Razpo 999
▁primor 999
▁trendi 999
bljenost 999
▁lepega 999
▁motnjo 999
▁nobenem 999
▁nedovolje 999
▁znanstvene 999
▁32. 999
▁50- 999
▁Učitelj 999
▁dobrine 999
▁jezero 999
▁Manche 999
▁korporati 999
▁predvidene 999
▁prsi 999
;#1198 999
▁dodatka 999
▁ohranjanja 999
▁gledam 999
▁povprečjem 999
▁odmi 999
▁mejni 999
▁razja 999
▁sporno 999
▁izjemen 999
▁izvedene 999
▁prodajno 999
▁obrestnih 999
▁goro 999
▁zapletov 999
▁prostorskega 999
▁pohod 999
▁njegovimi 999
«) 999
–201 999
▁padcu 999
▁upajo 999
▁odločba 999
▁poslovalni 999
▁BA 999
▁šestna 999
jca 999
▁Miche 999
▁bana 999
▁Tretja 999
▁obrača 999
▁maši 999
▁odkril 999
▁prisotno 999
mit 999
▁obiskom 999
▁možnostih 999
▁vsebovati 999
.2.4 999
▁prodam 999
▁ustvarijo 999
▁kerami 999
▁aktivna 999
▁srečala 999
▁napovedala 999
▁usoda 999
▁servisa 999
malo 999
▁tvor 999
torija 999
▁zdrava 999
▁Pavel 999
▁telesnih 999
▁hočeš 999
▁večinski 999
▁bela 999
▁analog 999
▁opredeljene 999
čniku 999
▁goni 999
▁pogledati 999
▁konkretnem 999
▁MOL 999
▁Odsto 999
▁slavnost 999
▁pohištva 999
▁radijskih 999
kuli 999
jenju 999
▁polfinalu 999
▁prihodnjem 999
▁kakovostnih 999
vio 999
▁TEM 999
▁vidna 999
▁paketa 999
▁odti 999
▁ocenjena 999
▁trenutni 999
▁dovoljena 999
▁Takšne 999
▁vozijo 999
▁občinstva 999
šar 999
gena 999
▁prepovedano 999
▁Strokovnjaki 999
▁Miklav 999
lekti 999
▁obrnil 999
▁otroštvu 999
▁boleznijo 999
▁ljubitelj 999
▁štirikrat 999
▁Nico 999
▁vzpe 999
▁razdaljo 999
▁sreči 999
▁Kosova 999
▁sekretarja 999
▁zatrdil 999
▁uporabljenih 999
▁5.4 999
rajte 999
▁plod 999
▁križ 999
▁Južno 999
▁drage 999
▁Faceboo 999
▁pridobljeno 999
tat 999
▁omogočala 999
▁tujci 999
▁namenil 999
▁svetloba 999
▁izpodbija 999
▁umetnikov 999
▁Poro 999
▁vola 999
▁nemalo 999
▁bogastvo 999
▁umetniško 999
▁ekso 999
▁bolnik 999
▁Brani 999
▁Vstop 999
▁jesen 999
▁poskušamo 999
▁tvoji 999
▁opravilo 999
▁gledališču 999
▁trudi 999
llywood 999
▁lanski 999
▁zanaša 999
▁Katarina 999
ŠA 999
▁slovar 999
▁kategori 999
▁obveščanje 999
▁ustreznosti 999
▁prepoznavanje 999
!" 999
▁ogor 999
▁nivoja 999
▁af 999
▁cev 999
▁kazniva 999
▁spekter 999
▁davki 999
▁petem 999
▁visokim 999
▁podobnosti 999
xu 999
▁4.5 999
▁strojni 999
▁volilnih 999
TM 999
▁Srb 999
▁Jadra 999
▁pravilne 999
▁Dodat 999
▁pozicijo 999
▁zloči 999
▁držati 999
▁izrazili 999
liva 999
▁špri 999
▁lepih 999
lp 999
ložba 999
▁zbirki 999
▁Washington 999
šić 999
▁Švici 999
▁Mün 999
▁apo 999
▁enemu 999
▁naravoslo 999
▁neodvisne 999
▁uresničevanju 999
▁041 999
▁razdeljena 999
geo 999
ima 999
▁Tü 999
▁edin 999
ološko 999
▁Kriti 999
jenosti 999
▁33. 999
▁Pridobi 999
▁visokem 999
▁izboljšuje 999
karji 999
▁Isto 999
▁veji 999
▁protokol 999
▁genet 999
▁enačbe 999
laciji 999
▁spopri 999
▁izdelana 999
▁jajca 999
▁Fede 999
▁stroji 999
▁ventila 999
▁Obli 999
▁daljavo 999
▁dodane 999
▁sklade 999
▁organizirati 999
▁dolgov 999
▁članka 999
201 999
loških 999
▁osnutek 999
▁obravnavanih 999
▁Juli 999
▁izognili 999
jezi 999
▁zor 999
kipedia 999
▁dnevih 999
▁odvaja 999
▁opr 999
sniti 999
trans 999
▁Intervju 999
▁imenovanih 999
▁pojavili 999
▁strojne 999
▁odprtega 999
▁zaključni 999
▁izkoriščanje 999
▁pospre 999
▁kazenskih 999
ON 999
elo 999
.2013 999
tvenih 999
▁organizirajo 999
pimo 999
IZ 999
▁you 999
▁individualnih 999
▁ženskam 999
▁1,7 999
▁njuno 999
▁vetro 999
▁morete 999
▁sedeža 999
▁tretjič 999
▁ORG 999
▁vsakdanji 999
stat 999
▁filtri 999
▁ponazarja 999
▁skladnosti 999
his 999
▁dialoga 999
▁veljavo 999
▁prodajni 999
▁pridobivajo 999
▁ser 999
▁preostale 999
▁Aka 999
▁Rimu 999
▁lote 999
▁Hipoteza 999
logy 999
▁Kapita 999
▁govoru 999
▁lovori 999
▁revolucije 999
reh 999
▁deska 999
▁napadalec 999
▁Kel 999
risto 999
▁Debe 999
▁15- 999
▁Izračun 999
▁poklicnih 999
alizacija 999
▁predpise 999
▁zelenjavo 999
▁GPS 999
▁Sme 999
.2011 999
▁kompen 999
▁Komunika 999
▁zaznavanje 999
▁System 999
▁nedotak 999
▁Krki 999
▁subvencioni 999
▁raziskovalnega 999
▁neenako 999
▁krompir 999
▁Mne 999
▁petdeset 999
▁udeležba 999
▁zagotovilo 999
▁tim 999
▁definiciji 999
beta 999
▁Sar 999
▁trud 999
▁Marke 999
▁zbrane 999
▁povabilo 999
▁aktivnostmi 999
▁Erjavec 999
▁ustaviti 999
▁podna 999
▁Šošta 999
▁Video 999
▁značilni 999
▁operaciji 999
▁SVE 999
▁neizo 999
▁Povr 999
▁izidom 999
▁korake 999
▁koncertu 999
▁vzamemo 999
▁(2. 999
večjemu 999
▁veljal 999
mimo 999
▁najdalj 999
▁pogosta 999
▁skodeli 999
lujejo 999
▁plačilne 999
chno 999
▁ključa 999
▁stimula 999
▁standardom 999
▁Aja 999
izjak 999
▁respo 999
rodnega 999
▁trajal 999
▁podeželju 999
▁uporabljala 999
▁naročilu 999
▁izpolnjevanje 999
▁krea 999
▁širino 999
▁Taka 999
▁parov 999
▁verske 999
▁kazenski 999
▁avtocesti 999
▁priporočil 999
nge 999
glavje 999
▁verskih 999
▁požar 999
▁prece 999
▁Knjiga 999
▁preva 999
OB 999
včar 999
▁Vladimir 999
▁prihodom 999
▁izpolnjeni 999
▁iznaj 999
▁vonja 999
▁zasedbe 999
▁sprejmemo 999
▁izstopi 999
▁Angliji 999
▁Bliž 999
▁Blago 999
▁Poglej 999
▁sanacijo 999
▁proizvodi 999
glu 999
▁navdih 999
▁zabeležili 999
---------------- 999
roza 999
▁sprija 999
ric 999
▁bibli 999
▁blagovna 999
časi 999
▁dno 999
podje 999
▁pijačo 999
ida 999
▁1980 999
▁vodah 999
▁organih 999
▁vmeša 999
▁SKLEP 999
max 999
libe 999
▁uporaben 999
▁zaposlena 999
▁izpeljati 999
▁slovenščine 999
▁črna 999
tirana 999
▁kratki 999
▁obrazec 999
▁Najboljši 999
▁olimpijske 999
▁koza 999
▁posode 999
▁odpornost 999
▁zati 999
▁pozitivnega 999
mete 999
▁Dravi 999
▁izredni 999
▁napovedali 999
ročno 999
stoje 999
▁provi 999
▁Slovenskega 999
ČNO 999
▁forumu 999
▁spoloma 999
▁seks 999
▁intui 999
▁zavla 999
ževanju 999
▁letališču 999
▁pomembnega 999
▁bur 999
▁žep 999
▁Franca 999
▁porabniki 999
vce 999
▁predzna 999
▁odgovoru 999
▁EM 999
zde 999
▁', 999
▁kriva 999
▁Drnovšek 999
▁Britanije 999
▁motivirani 999
1199 999
▁igranja 999
▁višjega 999
▁navdušeni 999
▁(2, 999
▁SPRE 999
▁merilu 999
▁nadaljnjem 999
▁dokumentacija 999
tlej 999
▁problemom 999
čano 999
▁Bom 999
▁troša 999
▁padajo 999
▁počakati 999
talno 999
▁kubi 999
▁turizmu 999
tane 999
lerja 999
▁motnjami 999
▁χ 999
kcij 999
▁operi 999
▁črpalke 999
▁sprejetje 999
▁predstavnica 999
▁Reu 999
kdo 999
▁Saša 999
▁plosk 999
▁bralci 999
lki 999
▁črte 999
tirano 999
▁obramba 999
▁preselil 999
▁2003. 999
▁plačevati 999
▁bosa 999
▁akte 999
▁izjeme 999
žaj 999
▁zmag 999
600 999
rejen 999
stojni 999
▁onemogoča 999
!!! 999
cve 999
▁Anže 999
▁prenesli 999
▁udeležbe 999
▁zavarovalnica 999
▁Krke 999
▁integracijo 999
vik 999
▁105 999
▁dohodki 999
▁Potočnik 999
▁sankcije 999
▁zahtevati 999
▁uporabnosti 999
rs 999
▁ladja 999
▁podajo 999
▁spomlada 999
tk 999
marke 999
▁odšteti 999
▁Mala 999
▁sloj 999
▁Istraben 999
[...]
